// Auto-generated serialization of TFLite flatbuffers in config directory

#include "em_device.h"
#include "sl_tflite_micro_model.h"


const uint8_t magic_wand_model_array[] __ALIGNED(4) = {
  0x20, 0x00, 0x00, 0x00, 0x54, 0x46, 0x4c, 0x33, 0x00, 0x00, 0x00, 0x00, 
  0x14, 0x00, 0x20, 0x00, 0x1c, 0x00, 0x18, 0x00, 0x14, 0x00, 0x10, 0x00, 
  0x0c, 0x00, 0x00, 0x00, 0x08, 0x00, 0x04, 0x00, 0x14, 0x00, 0x00, 0x00, 
  0x1c, 0x00, 0x00, 0x00, 0x1c, 0x00, 0x00, 0x00, 0x6c, 0x00, 0x00, 0x00, 
  0x90, 0x14, 0x00, 0x00, 0xa8, 0x14, 0x00, 0x00, 0xe0, 0x25, 0x00, 0x00, 
  0x03, 0x00, 0x00, 0x00, 0x00, 0x00, 0x00, 0x00, 0x02, 0x00, 0x00, 0x00, 
  0x2c, 0x00, 0x00, 0x00, 0x04, 0x00, 0x00, 0x00, 0xe4, 0xff, 0xff, 0xff, 
  0x16, 0x00, 0x00, 0x00, 0x04, 0x00, 0x00, 0x00, 0x0b, 0x00, 0x00, 0x00, 
  0x53, 0x4c, 0x5f, 0x50, 0x41, 0x52, 0x41, 0x4d, 0x53, 0x76, 0x31, 0x00, 
  0x08, 0x00, 0x0c, 0x00, 0x08, 0x00, 0x04, 0x00, 0x08, 0x00, 0x00, 0x00, 
  0x15, 0x00, 0x00, 0x00, 0x04, 0x00, 0x00, 0x00, 0x13, 0x00, 0x00, 0x00, 
  0x6d, 0x69, 0x6e, 0x5f, 0x72, 0x75, 0x6e, 0x74, 0x69, 0x6d, 0x65, 0x5f, 
  0x76, 0x65, 0x72, 0x73, 0x69, 0x6f, 0x6e, 0x00, 0x17, 0x00, 0x00, 0x00, 
  0x20, 0x14, 0x00, 0x00, 0x18, 0x14, 0x00, 0x00, 0x00, 0x14, 0x00, 0x00, 
  0x90, 0x13, 0x00, 0x00, 0x60, 0x13, 0x00, 0x00, 0x50, 0x11, 0x00, 0x00, 
  0x00, 0x11, 0x00, 0x00, 0xf0, 0x02, 0x00, 0x00, 0xa0, 0x02, 0x00, 0x00, 
  0x50, 0x02, 0x00, 0x00, 0x30, 0x02, 0x00, 0x00, 0x28, 0x02, 0x00, 0x00, 
  0x20, 0x02, 0x00, 0x00, 0x18, 0x02, 0x00, 0x00, 0x10, 0x02, 0x00, 0x00, 
  0x08, 0x02, 0x00, 0x00, 0x00, 0x02, 0x00, 0x00, 0xf8, 0x01, 0x00, 0x00, 
  0xf0, 0x01, 0x00, 0x00, 0xe8, 0x01, 0x00, 0x00, 0xe0, 0x01, 0x00, 0x00, 
  0xc0, 0x01, 0x00, 0x00, 0x04, 0x00, 0x00, 0x00, 0x7a, 0xeb, 0xff, 0xff, 
  0x04, 0x00, 0x00, 0x00, 0xac, 0x01, 0x00, 0x00, 0x0c, 0x00, 0x00, 0x00, 
  0x08, 0x00, 0x0c, 0x00, 0x0b, 0x00, 0x04, 0x00, 0x08, 0x00, 0x00, 0x00, 
  0x08, 0x00, 0x00, 0x00, 0x00, 0x00, 0x00, 0x01, 0x05, 0x00, 0x00, 0x00, 
  0x48, 0x01, 0x00, 0x00, 0x0c, 0x01, 0x00, 0x00, 0x9c, 0x00, 0x00, 0x00, 
  0x4c, 0x00, 0x00, 0x00, 0x04, 0x00, 0x00, 0x00, 0xd6, 0xfe, 0xff, 0xff, 
  0x00, 0x00, 0x00, 0x0c, 0x08, 0x00, 0x00, 0x00, 0x2c, 0x00, 0x00, 0x00, 
  0xca, 0xfe, 0xff, 0xff, 0x04, 0x00, 0x00, 0x00, 0x18, 0x00, 0x00, 0x00, 
  0x32, 0x30, 0x32, 0x31, 0x2d, 0x31, 0x31, 0x2d, 0x30, 0x32, 0x54, 0x32, 
  0x33, 0x3a, 0x33, 0x32, 0x3a, 0x32, 0x32, 0x2e, 0x35, 0x38, 0x39, 0x5a, 
  0x00, 0x00, 0x00, 0x00, 0x04, 0x00, 0x00, 0x00, 0x64, 0x61, 0x74, 0x65, 
  0x00, 0x00, 0x00, 0x00, 0x1a, 0xff, 0xff, 0xff, 0x00, 0x00, 0x00, 0x0c, 
  0x08, 0x00, 0x00, 0x00, 0x34, 0x00, 0x00, 0x00, 0x0e, 0xff, 0xff, 0xff, 
  0x04, 0x00, 0x00, 0x00, 0x20, 0x00, 0x00, 0x00, 0x34, 0x31, 0x63, 0x34, 
  0x61, 0x64, 0x66, 0x33, 0x62, 0x65, 0x36, 0x39, 0x31, 0x37, 0x63, 0x62, 
  0x63, 0x63, 0x39, 0x33, 0x63, 0x64, 0x61, 0x64, 0x37, 0x33, 0x39, 0x30, 
  0x38, 0x61, 0x30, 0x36, 0x00, 0x00, 0x00, 0x00, 0x04, 0x00, 0x00, 0x00, 
  0x68, 0x61, 0x73, 0x68, 0x00, 0x00, 0x00, 0x00, 0x66, 0xff, 0xff, 0xff, 
  0x00, 0x00, 0x00, 0x0d, 0x08, 0x00, 0x00, 0x00, 0x54, 0x00, 0x00, 0x00, 
  0x5a, 0xff, 0xff, 0xff, 0x04, 0x00, 0x00, 0x00, 0x04, 0x00, 0x00, 0x00, 
  0x38, 0x00, 0x00, 0x00, 0x28, 0x00, 0x00, 0x00, 0x18, 0x00, 0x00, 0x00, 
  0x04, 0x00, 0x00, 0x00, 0x08, 0x00, 0x00, 0x00, 0x6e, 0x65, 0x67, 0x61, 
  0x74, 0x69, 0x76, 0x65, 0x00, 0x00, 0x00, 0x00, 0x05, 0x00, 0x00, 0x00, 
  0x73, 0x6c, 0x6f, 0x70, 0x65, 0x00, 0x00, 0x00, 0x04, 0x00, 0x00, 0x00, 
  0x72, 0x69, 0x6e, 0x67, 0x00, 0x00, 0x00, 0x00, 0x04, 0x00, 0x00, 0x00, 
  0x77, 0x69, 0x6e, 0x67, 0x00, 0x00, 0x00, 0x00, 0x07, 0x00, 0x00, 0x00, 
  0x63, 0x6c, 0x61, 0x73, 0x73, 0x65, 0x73, 0x00, 0xd2, 0xff, 0xff, 0xff, 
  0x00, 0x00, 0x00, 0x03, 0x10, 0x00, 0x00, 0x00, 0x14, 0x00, 0x00, 0x00, 
  0x00, 0x00, 0x06, 0x00, 0x08, 0x00, 0x07, 0x00, 0x06, 0x00, 0x00, 0x00, 
  0x00, 0x00, 0x00, 0x01, 0x07, 0x00, 0x00, 0x00, 0x76, 0x65, 0x72, 0x73, 
  0x69, 0x6f, 0x6e, 0x00, 0x00, 0x00, 0x0a, 0x00, 0x12, 0x00, 0x0c, 0x00, 
  0x07, 0x00, 0x08, 0x00, 0x0a, 0x00, 0x00, 0x00, 0x00, 0x00, 0x00, 0x0c, 
  0x10, 0x00, 0x00, 0x00, 0x30, 0x00, 0x00, 0x00, 0x00, 0x00, 0x06, 0x00, 
  0x08, 0x00, 0x04, 0x00, 0x06, 0x00, 0x00, 0x00, 0x04, 0x00, 0x00, 0x00, 
  0x17, 0x00, 0x00, 0x00, 0x74, 0x66, 0x6c, 0x69, 0x74, 0x65, 0x5f, 0x6d, 
  0x69, 0x63, 0x72, 0x6f, 0x5f, 0x6d, 0x61, 0x67, 0x69, 0x63, 0x5f, 0x77, 
  0x61, 0x6e, 0x64, 0x00, 0x04, 0x00, 0x00, 0x00, 0x6e, 0x61, 0x6d, 0x65, 
  0x00, 0x00, 0x00, 0x00, 0x32, 0xed, 0xff, 0xff, 0x04, 0x00, 0x00, 0x00, 
  0x10, 0x00, 0x00, 0x00, 0x31, 0x2e, 0x31, 0x34, 0x2e, 0x30, 0x00, 0x00, 
  0x00, 0x00, 0x00, 0x00, 0x00, 0x00, 0x00, 0x00, 0xe4, 0xdc, 0xff, 0xff, 
  0xe8, 0xdc, 0xff, 0xff, 0xec, 0xdc, 0xff, 0xff, 0xf0, 0xdc, 0xff, 0xff, 
  0xf4, 0xdc, 0xff, 0xff, 0xf8, 0xdc, 0xff, 0xff, 0xfc, 0xdc, 0xff, 0xff, 
  0x00, 0xdd, 0xff, 0xff, 0x04, 0xdd, 0xff, 0xff, 0x08, 0xdd, 0xff, 0xff, 
  0x76, 0xed, 0xff, 0xff, 0x04, 0x00, 0x00, 0x00, 0x10, 0x00, 0x00, 0x00, 
  0xab, 0xff, 0xff, 0xff, 0x4a, 0x00, 0x00, 0x00, 0xc9, 0xff, 0xff, 0xff, 
  0xeb, 0xff, 0xff, 0xff, 0x92, 0xed, 0xff, 0xff, 0x04, 0x00, 0x00, 0x00, 
  0x40, 0x00, 0x00, 0x00, 0x36, 0xf4, 0x08, 0xe9, 0x22, 0x08, 0xad, 0x33, 
  0xf8, 0x14, 0x4a, 0xdb, 0x61, 0x00, 0x0e, 0xe1, 0xf5, 0x0b, 0x03, 0xe4, 
  0x12, 0xfc, 0x1b, 0x31, 0xf9, 0xdf, 0x43, 0xdd, 0x52, 0x81, 0x12, 0xda, 
  0x3e, 0x42, 0x10, 0xeb, 0x11, 0xf8, 0x4e, 0xf6, 0x03, 0xff, 0x49, 0x49, 
  0x41, 0x46, 0x1c, 0x0f, 0xd8, 0x39, 0x12, 0xef, 0x17, 0xfa, 0xde, 0x48, 
  0xf9, 0x1a, 0x4d, 0x38, 0x50, 0x08, 0x0f, 0xe6, 0xde, 0xed, 0xff, 0xff, 
  0x04, 0x00, 0x00, 0x00, 0x40, 0x00, 0x00, 0x00, 0xf7, 0xff, 0xff, 0xff, 
  0xf7, 0xff, 0xff, 0xff, 0x2c, 0x00, 0x00, 0x00, 0x17, 0x00, 0x00, 0x00, 
  0xfc, 0xff, 0xff, 0xff, 0xef, 0xff, 0xff, 0xff, 0xfa, 0xff, 0xff, 0xff, 
  0xff, 0xff, 0xff, 0xff, 0x27, 0x00, 0x00, 0x00, 0xf4, 0xff, 0xff, 0xff, 
  0x07, 0x00, 0x00, 0x00, 0xf9, 0xff, 0xff, 0xff, 0xf3, 0xff, 0xff, 0xff, 
  0xf8, 0xff, 0xff, 0xff, 0xf8, 0xff, 0xff, 0xff, 0xf8, 0xff, 0xff, 0xff, 
  0x2a, 0xee, 0xff, 0xff, 0x04, 0x00, 0x00, 0x00, 0x00, 0x0e, 0x00, 0x00, 
  0xf4, 0xf2, 0xf9, 0xeb, 0xf2, 0xfd, 0xf6, 0xec, 0x04, 0xfe, 0x0a, 0x05, 
  0xf4, 0xf6, 0xf3, 0xf5, 0xf1, 0xff, 0xf5, 0xfc, 0x03, 0xee, 0x07, 0xf1, 
  0xfa, 0xfe, 0xef, 0x0d, 0x02, 0xf7, 0xf3, 0xfb, 0xf3, 0xf4, 0x03, 0x02, 
  0x02, 0x08, 0xe4, 0x00, 0xf1, 0xe8, 0xfa, 0x06, 0xf6, 0x02, 0xf7, 0xeb, 
  0xed, 0xef, 0x09, 0x00, 0x03, 0x11, 0xe9, 0x07, 0x10, 0x04, 0xe8, 0xf3, 
  0xf7, 0xed, 0xf7, 0xee, 0xf7, 0xf4, 0xed, 0xe7, 0xf6, 0x0c, 0xed, 0xff, 
  0xeb, 0xec, 0xfa, 0x0b, 0xf0, 0xf3, 0xf5, 0x05, 0xf0, 0xfa, 0xf2, 0xf4, 
  0x02, 0x0a, 0x05, 0xeb, 0x00, 0x05, 0xf7, 0x08, 0xeb, 0xf4, 0xeb, 0xf8, 
  0xf6, 0x01, 0xec, 0xff, 0x0a, 0xf0, 0x0b, 0xf9, 0x0d, 0x0c, 0x05, 0xfb, 
  0xff, 0xf7, 0xf8, 0x0a, 0x02, 0xee, 0x04, 0xfe, 0xec, 0xea, 0xf2, 0xfa, 
  0xf0, 0xf6, 0x01, 0xeb, 0x0c, 0x00, 0xe8, 0xf4, 0x0b, 0x05, 0xf9, 0x00, 
  0x0c, 0xef, 0xe9, 0xed, 0xf7, 0x00, 0xee, 0x00, 0xff, 0xea, 0x00, 0x02, 
  0xec, 0x02, 0x08, 0xf3, 0xe9, 0xf2, 0xeb, 0xf4, 0xf5, 0x08, 0xf6, 0xff, 
  0x01, 0x0b, 0xe6, 0x0d, 0x08, 0x02, 0xe8, 0xfb, 0x08, 0x0e, 0x04, 0xf2, 
  0x04, 0xea, 0xed, 0xf6, 0x02, 0xe9, 0xf5, 0x00, 0xf1, 0xee, 0xed, 0xe1, 
  0xf8, 0x10, 0xec, 0xed, 0xf9, 0xf5, 0x07, 0x0f, 0x04, 0xfa, 0xe0, 0x03, 
  0xf6, 0xf8, 0x08, 0xe6, 0xef, 0xf1, 0x01, 0x04, 0x06, 0xfc, 0xf4, 0x0f, 
  0x00, 0xf7, 0xe7, 0xfa, 0xf7, 0xed, 0xea, 0x00, 0x09, 0xfb, 0xe8, 0xff, 
  0xef, 0x07, 0xeb, 0xf5, 0xfd, 0xeb, 0xf0, 0xfa, 0xf6, 0xf1, 0x06, 0x00, 
  0x06, 0xfb, 0xe5, 0xef, 0x0e, 0x07, 0xfb, 0x04, 0xe8, 0x05, 0xec, 0xec, 
  0xf8, 0xf7, 0x0f, 0xf9, 0xfc, 0xff, 0xe9, 0xee, 0xec, 0xf2, 0x06, 0xe9, 
  0x08, 0x0a, 0xf9, 0x05, 0xf9, 0x00, 0xed, 0x04, 0xfc, 0xf5, 0xec, 0xfb, 
  0xff, 0x0a, 0x08, 0xf5, 0x0c, 0x0d, 0xfb, 0x09, 0xf4, 0x03, 0xf4, 0xe5, 
  0xf2, 0xf9, 0xf6, 0xfe, 0x09, 0xf4, 0xf9, 0x09, 0xe7, 0xfc, 0xeb, 0x03, 
  0xff, 0xf4, 0xf5, 0xf7, 0xf2, 0xed, 0xee, 0xfb, 0xf9, 0xfe, 0x09, 0xec, 
  0x09, 0xfd, 0xed, 0xfa, 0xe8, 0xfe, 0xf4, 0x00, 0x07, 0x05, 0x03, 0xe7, 
  0xf0, 0x0b, 0x05, 0xff, 0x02, 0xf6, 0xff, 0xf5, 0xfe, 0xec, 0x02, 0xe4, 
  0xfd, 0xf8, 0xf1, 0x02, 0xf7, 0xed, 0xff, 0x0e, 0x05, 0x0b, 0xf7, 0x00, 
  0xfc, 0xf0, 0x00, 0xef, 0xfd, 0xfa, 0xf9, 0xfc, 0x03, 0xf0, 0xe8, 0xf1, 
  0x07, 0xee, 0xe1, 0x04, 0x03, 0x03, 0xf1, 0x03, 0x00, 0x0b, 0xf7, 0xf9, 
  0xf7, 0xf4, 0x05, 0x00, 0xfc, 0xfa, 0xea, 0xe6, 0xe9, 0xf7, 0xf8, 0xfa, 
  0x0a, 0x03, 0xf5, 0xf0, 0xeb, 0x02, 0xf8, 0xf0, 0x04, 0xee, 0xe0, 0xee, 
  0x0d, 0xf8, 0xef, 0xfa, 0x01, 0xf8, 0xe1, 0x08, 0x05, 0x07, 0x09, 0xf7, 
  0xf9, 0xed, 0xf1, 0xfb, 0xf7, 0x0e, 0x02, 0xfa, 0x05, 0x04, 0xec, 0x02, 
  0xfa, 0x07, 0xf2, 0x0d, 0xfe, 0xfd, 0xdf, 0x01, 0xe9, 0xea, 0xfb, 0x01, 
  0x0e, 0xfe, 0xea, 0xee, 0x01, 0xf9, 0xfe, 0xfb, 0xe9, 0xf6, 0xde, 0xfa, 
  0xe1, 0x04, 0xed, 0x02, 0x02, 0xea, 0xf9, 0x02, 0xe2, 0xfe, 0xf2, 0xec, 
  0xee, 0x0c, 0xf2, 0xf3, 0xff, 0xff, 0x0e, 0x0c, 0x34, 0xfe, 0x06, 0x1a, 
  0x19, 0xff, 0xf2, 0x19, 0xf8, 0x04, 0x1b, 0xfe, 0x0e, 0xec, 0x02, 0x0a, 
  0x14, 0x06, 0x06, 0xfe, 0x0e, 0xf9, 0xf4, 0x08, 0x10, 0xf6, 0xfd, 0x09, 
  0x01, 0xd9, 0xf9, 0x01, 0xeb, 0x01, 0x04, 0xfb, 0xfe, 0xd3, 0xf7, 0xed, 
  0x05, 0xff, 0xfa, 0x13, 0x09, 0xde, 0xf9, 0x0e, 0xdf, 0xf2, 0xfd, 0xf9, 
  0x0e, 0xcf, 0xfe, 0xeb, 0xf6, 0xfb, 0x00, 0x06, 0x02, 0xfb, 0xfd, 0x06, 
  0xfd, 0xe3, 0xfd, 0xf8, 0x02, 0xd1, 0x0b, 0xf4, 0xee, 0xf7, 0xfe, 0x03, 
  0x05, 0xf4, 0xfc, 0x0c, 0xfc, 0xe5, 0x00, 0xfe, 0x11, 0xf0, 0x09, 0xf7, 
  0x10, 0xfc, 0x01, 0x00, 0x03, 0xee, 0xfe, 0x06, 0xf7, 0xef, 0x04, 0x01, 
  0x0e, 0x03, 0x06, 0xed, 0xf9, 0xfb, 0xfc, 0x08, 0x0d, 0xf2, 0xfc, 0x0c, 
  0xef, 0x04, 0x07, 0xfa, 0x21, 0xfd, 0x0c, 0xe9, 0xfd, 0xfe, 0x00, 0x03, 
  0x06, 0xee, 0xfb, 0x07, 0xf8, 0xef, 0x08, 0x01, 0x05, 0xe8, 0x00, 0xf9, 
  0x03, 0xfa, 0x00, 0x0a, 0xf8, 0xfe, 0xed, 0x07, 0x05, 0xf1, 0x04, 0x04, 
  0xfd, 0xd7, 0xfc, 0xf8, 0x01, 0xed, 0xfe, 0x03, 0xf8, 0xf1, 0xe0, 0x01, 
  0x06, 0x0a, 0x05, 0x06, 0x12, 0xe8, 0x09, 0xed, 0x04, 0x03, 0xff, 0xf1, 
  0x02, 0xe2, 0xeb, 0x09, 0x15, 0xfa, 0x02, 0x0a, 0xfd, 0xe3, 0x03, 0xe4, 
  0x02, 0xe3, 0x01, 0xe8, 0x09, 0xe1, 0xc8, 0x02, 0xfc, 0x0b, 0xf6, 0xfb, 
  0xfa, 0xe2, 0x14, 0xfe, 0xfa, 0xe0, 0x02, 0xfb, 0xd1, 0xf2, 0xcd, 0x01, 
  0x1b, 0xfb, 0xe6, 0xf6, 0x0d, 0xfd, 0x07, 0x07, 0x0d, 0xc8, 0x10, 0xe0, 
  0xbf, 0xe1, 0xbe, 0x05, 0x4b, 0x0b, 0xcc, 0x1d, 0x1e, 0xf6, 0xf1, 0x1d, 
  0x1b, 0xba, 0x1a, 0xf0, 0x01, 0xf0, 0xd3, 0x00, 0x29, 0x01, 0xc7, 0x2c, 
  0x05, 0x10, 0x00, 0xfb, 0x14, 0xdb, 0x05, 0x0f, 0xe7, 0xf0, 0xce, 0x12, 
  0x07, 0x04, 0xef, 0x08, 0x09, 0x04, 0x00, 0xe3, 0x17, 0xf0, 0xfc, 0xfb, 
  0xf1, 0xda, 0xde, 0x20, 0xf5, 0xe0, 0x1b, 0xf0, 0x15, 0x00, 0xe2, 0xe3, 
  0x02, 0x02, 0xfc, 0x11, 0x03, 0xeb, 0xfe, 0x17, 0xfe, 0xe9, 0x16, 0xed, 
  0x18, 0xe8, 0xe0, 0xda, 0x01, 0x0b, 0x00, 0x23, 0x1c, 0xf0, 0xe5, 0x14, 
  0x02, 0xf8, 0x13, 0xf1, 0x25, 0x0e, 0x03, 0xf0, 0x0b, 0xe6, 0x05, 0x19, 
  0x17, 0xea, 0x13, 0x08, 0x02, 0xf0, 0x09, 0xf4, 0x10, 0xee, 0x01, 0xf8, 
  0x1d, 0xdf, 0x01, 0x1f, 0x0d, 0xe9, 0x03, 0x00, 0x01, 0xfc, 0x07, 0xfb, 
  0x20, 0x03, 0xfe, 0xf2, 0xfa, 0xe6, 0x09, 0x12, 0x11, 0x01, 0xf4, 0x02, 
  0x00, 0x05, 0xfc, 0x12, 0x0e, 0xf8, 0xd5, 0xf9, 0x0f, 0xd8, 0xfc, 0x12, 
  0x07, 0xfa, 0xd8, 0x17, 0x07, 0x01, 0x01, 0x0a, 0xfa, 0xf3, 0xfd, 0xe8, 
  0x0f, 0xfd, 0xfc, 0xfd, 0x11, 0xf9, 0xd5, 0x06, 0x0e, 0xfe, 0xf1, 0x08, 
  0x0d, 0xf8, 0xdd, 0xdb, 0x08, 0xf2, 0xfd, 0x0b, 0xfa, 0xdf, 0xc8, 0x0d, 
  0x16, 0xe7, 0xf2, 0x0c, 0x0d, 0x00, 0xd4, 0xf7, 0x01, 0xef, 0x08, 0xfb, 
  0x0d, 0xea, 0xcf, 0x09, 0x10, 0xed, 0x10, 0xff, 0x0a, 0xf2, 0xf4, 0xfa, 
  0x09, 0xfc, 0x09, 0x18, 0x0d, 0xd2, 0xe0, 0x09, 0x0b, 0x1f, 0xfa, 0xf3, 
  0x07, 0x1f, 0xed, 0x03, 0x0a, 0xfa, 0x1c, 0x10, 0x06, 0x24, 0xf7, 0xeb, 
  0x14, 0x04, 0xff, 0x02, 0xd0, 0x3b, 0xeb, 0xe5, 0xf7, 0xff, 0xe7, 0xfa, 
  0x01, 0x14, 0xfe, 0x00, 0x3d, 0x04, 0xf6, 0xe7, 0x0b, 0x06, 0x1f, 0x0a, 
  0xf3, 0xff, 0xec, 0x07, 0x04, 0x00, 0xfb, 0xff, 0xf8, 0x2a, 0xfc, 0xef, 
  0x0a, 0xf9, 0x05, 0x21, 0xfb, 0x01, 0xed, 0x17, 0xfe, 0x1a, 0xf5, 0xf4, 
  0xe1, 0x1c, 0xfa, 0xf1, 0x15, 0xe2, 0x04, 0x19, 0xfe, 0x02, 0xf5, 0x19, 
  0x07, 0x02, 0xfc, 0xf1, 0xf4, 0x35, 0xfb, 0xd2, 0x28, 0xe6, 0xec, 0x2a, 
  0x04, 0xf3, 0xf1, 0x1f, 0xfc, 0xf2, 0xfe, 0xf4, 0xef, 0x2d, 0xf7, 0xe4, 
  0x17, 0x02, 0x01, 0x25, 0x0e, 0x00, 0xf3, 0x05, 0xfd, 0xf3, 0xf7, 0xec, 
  0xf6, 0x0f, 0xfd, 0xfd, 0x06, 0x1e, 0xf9, 0x27, 0x04, 0x00, 0xf1, 0x0b, 
  0xfa, 0xf5, 0xfd, 0xf4, 0xf6, 0x06, 0xfd, 0xef, 0x15, 0x02, 0x0a, 0x3a, 
  0x0e, 0x06, 0xfa, 0x11, 0x00, 0xf6, 0xff, 0xe6, 0xfc, 0x20, 0x00, 0xdd, 
  0x05, 0xfe, 0xf6, 0x1e, 0xee, 0x07, 0xf5, 0x0a, 0x08, 0x0d, 0x00, 0xf8, 
  0x00, 0x21, 0xff, 0xed, 0x13, 0xed, 0x04, 0x20, 0x07, 0x03, 0xf0, 0x11, 
  0x00, 0xfc, 0xf8, 0xfb, 0x0f, 0x17, 0xfa, 0xef, 0x13, 0xed, 0x17, 0x20, 
  0x17, 0x05, 0xf4, 0x1a, 0x08, 0x0c, 0x01, 0x0e, 0xfd, 0x22, 0xff, 0x07, 
  0x1a, 0xd3, 0x0d, 0x15, 0x17, 0xfc, 0xf6, 0x08, 0xfd, 0x0e, 0xfe, 0x13, 
  0xfb, 0x00, 0x02, 0xeb, 0x1a, 0xd1, 0x16, 0x0f, 0x05, 0x00, 0xf8, 0x12, 
  0x07, 0xf9, 0xfd, 0x05, 0xed, 0x1c, 0x00, 0xd0, 0x0c, 0x05, 0xf9, 0xfb, 
  0xf2, 0x04, 0xfd, 0x20, 0xfd, 0xe4, 0xfc, 0xe8, 0xf4, 0x07, 0xf8, 0x14, 
  0xec, 0x0d, 0xf5, 0x0d, 0x04, 0xfe, 0xf0, 0xe6, 0xfa, 0xd2, 0x03, 0xc1, 
  0x04, 0xf0, 0xfd, 0x13, 0xe2, 0x1f, 0xdc, 0xee, 0xf7, 0x0d, 0xcf, 0xe0, 
  0xf8, 0xf7, 0xfa, 0xc7, 0xeb, 0xf9, 0xfd, 0x08, 0xce, 0x03, 0xea, 0xe4, 
  0xfa, 0x07, 0xb4, 0xd6, 0xea, 0x2c, 0x01, 0xd8, 0xf2, 0xf2, 0xf5, 0xf8, 
  0xc4, 0x12, 0xd8, 0xe1, 0xef, 0x07, 0xe5, 0xfe, 0xf0, 0x05, 0xf6, 0xea, 
  0x11, 0xeb, 0xef, 0xe9, 0xe7, 0x13, 0xfe, 0xed, 0x00, 0x0f, 0xeb, 0x0c, 
  0xfd, 0x17, 0xfe, 0x03, 0x19, 0x16, 0xf7, 0xec, 0x03, 0x02, 0x01, 0x1f, 
  0xf4, 0x05, 0xfe, 0xf7, 0xf7, 0x03, 0xf3, 0x06, 0x03, 0xf3, 0xfd, 0xfb, 
  0x08, 0x01, 0x17, 0x0f, 0x00, 0xf9, 0x06, 0x14, 0xf0, 0x00, 0x0a, 0x11, 
  0x0f, 0x0a, 0xf4, 0xd6, 0x07, 0x00, 0x16, 0x22, 0xea, 0xfa, 0x04, 0x15, 
  0x05, 0x1b, 0x00, 0x0e, 0x04, 0x2d, 0x04, 0xe8, 0x20, 0xe5, 0xf9, 0x1e, 
  0xe5, 0xff, 0xfe, 0x0f, 0x0a, 0x0c, 0xfc, 0x0e, 0xe3, 0x24, 0xfb, 0x0f, 
  0x1b, 0xe4, 0x02, 0x13, 0x14, 0xfc, 0xfc, 0x1a, 0x08, 0x10, 0xf1, 0x15, 
  0x04, 0x1a, 0xf6, 0xf2, 0x16, 0xe8, 0x15, 0x14, 0xfb, 0x05, 0xf3, 0x26, 
  0x06, 0x18, 0x0c, 0x0f, 0xe6, 0x22, 0xff, 0xf6, 0x13, 0xe6, 0x23, 0x27, 
  0x03, 0xf7, 0xf9, 0x08, 0xf3, 0x05, 0xfd, 0xff, 0xe5, 0x03, 0xf8, 0xf5, 
  0x11, 0xed, 0x06, 0x28, 0xf3, 0xfa, 0x05, 0x1f, 0x10, 0xf9, 0xea, 0xdf, 
  0xc1, 0xf8, 0x01, 0xdd, 0xef, 0x0e, 0xe4, 0xe9, 0xf2, 0xfd, 0xe6, 0xe7, 
  0xe6, 0xf9, 0x0c, 0xf9, 0xf1, 0xfd, 0xe3, 0xea, 0xf1, 0xf6, 0xf6, 0xf7, 
  0xf0, 0xfb, 0xf5, 0xfa, 0xf7, 0xee, 0x06, 0xe6, 0x10, 0x08, 0x03, 0xfd, 
  0x0a, 0x15, 0xf9, 0xfa, 0x09, 0xec, 0xea, 0xf8, 0x0d, 0x06, 0xe7, 0xf9, 
  0xf0, 0xef, 0xea, 0x06, 0xfd, 0xf3, 0xea, 0xf7, 0x04, 0x0d, 0xdc, 0x03, 
  0xf8, 0x0a, 0xf9, 0xf1, 0x16, 0xf8, 0xec, 0x0a, 0x07, 0xef, 0xec, 0xf6, 
  0xef, 0xf8, 0xe3, 0xfa, 0xeb, 0xff, 0xf5, 0x03, 0xf9, 0xfe, 0x02, 0xf2, 
  0x0a, 0xf6, 0xee, 0xf2, 0xf3, 0x09, 0xf2, 0xfd, 0x0d, 0xf0, 0x0c, 0x0b, 
  0xff, 0x11, 0xed, 0xec, 0xed, 0xf6, 0x0c, 0xf8, 0xec, 0xfc, 0xea, 0xf1, 
  0x09, 0xf6, 0x00, 0xef, 0x0a, 0x0a, 0xf1, 0xf6, 0xfa, 0x06, 0xf5, 0xee, 
  0xee, 0x05, 0xef, 0x01, 0x06, 0xeb, 0x08, 0x06, 0x09, 0xeb, 0xf9, 0xf1, 
  0xf9, 0x08, 0xe8, 0x0b, 0xf3, 0x06, 0x00, 0x07, 0xf7, 0xee, 0xed, 0xeb, 
  0x08, 0xf8, 0xfa, 0x03, 0x10, 0xef, 0x06, 0xf1, 0xeb, 0xf5, 0xfb, 0xf2, 
  0xed, 0x0b, 0x0b, 0xfd, 0xf4, 0x05, 0xe6, 0x06, 0xf9, 0x0a, 0xfd, 0x0c, 
  0xfa, 0xfe, 0xf0, 0xe7, 0x06, 0xfb, 0xfc, 0xea, 0xf2, 0x00, 0xfa, 0x04, 
  0xfc, 0x0b, 0xfe, 0xf6, 0xf3, 0x06, 0xef, 0xe7, 0x05, 0x0a, 0xf0, 0x03, 
  0xf0, 0x0c, 0xf6, 0xf1, 0xf0, 0xf8, 0xfc, 0xf3, 0xef, 0xf1, 0xfe, 0xfb, 
  0xf4, 0xf1, 0xf8, 0x0b, 0x00, 0xf3, 0xfa, 0x0b, 0xf6, 0xee, 0xf0, 0xeb, 
  0x08, 0xf9, 0xdf, 0xf2, 0xf5, 0x04, 0x04, 0xee, 0x0c, 0xea, 0xf7, 0xe9, 
  0x02, 0xfa, 0x00, 0xee, 0x05, 0x01, 0xea, 0xf2, 0xf2, 0xfb, 0xe6, 0x12, 
  0xfd, 0x13, 0xfa, 0x05, 0xf3, 0x0c, 0xfb, 0x05, 0x0b, 0xe5, 0xfe, 0xda, 
  0xf6, 0xe6, 0xfb, 0xe9, 0xf3, 0x25, 0xec, 0x14, 0xf9, 0xfc, 0xe3, 0xf9, 
  0x01, 0x04, 0xf0, 0xef, 0x0a, 0xee, 0x03, 0xeb, 0xe4, 0x08, 0xe0, 0x13, 
  0xf8, 0xf7, 0xe9, 0xe1, 0x10, 0x1a, 0xf7, 0xe5, 0x04, 0x09, 0xf3, 0xfb, 
  0xf8, 0x13, 0xfc, 0x1a, 0xf3, 0x00, 0xe8, 0xe9, 0x0c, 0x00, 0xf5, 0xec, 
  0xf9, 0x07, 0xef, 0xfc, 0xee, 0x10, 0xe4, 0x09, 0x03, 0x07, 0xdb, 0xf2, 
  0x19, 0xff, 0xe2, 0xeb, 0x08, 0x01, 0xed, 0xe5, 0xf9, 0x1b, 0x00, 0x03, 
  0xe8, 0x0d, 0xf0, 0xf4, 0x18, 0x09, 0xf6, 0xfd, 0xf1, 0x1c, 0xec, 0xf4, 
  0x00, 0x06, 0xeb, 0x0e, 0x10, 0x1a, 0xe5, 0xf7, 0x15, 0xf9, 0xf8, 0xf9, 
  0xfa, 0xff, 0xfc, 0x04, 0x09, 0x03, 0xe6, 0xf7, 0xfe, 0x04, 0xe0, 0x0a, 
  0x0c, 0xee, 0xf5, 0xe4, 0xfd, 0xfe, 0x09, 0x05, 0x09, 0x14, 0xee, 0x01, 
  0xee, 0x00, 0xe6, 0x02, 0x04, 0xff, 0xea, 0xfc, 0xff, 0x00, 0x02, 0xfc, 
  0xfc, 0x05, 0xf0, 0xf4, 0xfa, 0x03, 0xfc, 0x0d, 0x00, 0xfd, 0xfb, 0xe8, 
  0xf6, 0xfb, 0x06, 0xef, 0x05, 0x10, 0x02, 0xe9, 0x0a, 0x0b, 0xf1, 0xe9, 
  0x1c, 0xf3, 0xdc, 0xe5, 0x11, 0xff, 0xfa, 0xe2, 0xf0, 0x10, 0xec, 0x0e, 
  0x12, 0xff, 0xe4, 0xfa, 0x10, 0xfc, 0xfe, 0xfb, 0x10, 0xf5, 0x10, 0xf6, 
  0x01, 0x04, 0xfd, 0xf9, 0xf9, 0x23, 0xe7, 0xf9, 0x18, 0xf6, 0xf4, 0xf6, 
  0x13, 0x08, 0x02, 0xf7, 0xf2, 0x19, 0xf7, 0x0c, 0x05, 0x17, 0xfe, 0xed, 
  0x14, 0x01, 0xf5, 0xfd, 0x1e, 0x02, 0x02, 0x09, 0xbb, 0xf2, 0x07, 0x0b, 
  0x08, 0x00, 0xe0, 0x03, 0x11, 0x06, 0xdb, 0xf0, 0xfd, 0xf7, 0x05, 0x08, 
  0x0f, 0x02, 0x09, 0xfa, 0xe6, 0xe9, 0xed, 0xf5, 0xf7, 0xf2, 0xff, 0x06, 
  0xf4, 0xfb, 0x0d, 0x00, 0x12, 0xf5, 0xfe, 0xf0, 0xe4, 0xf3, 0x09, 0xfb, 
  0xf0, 0xfc, 0x0e, 0xfb, 0x03, 0xea, 0x0a, 0x02, 0xf4, 0xf0, 0xfc, 0xf8, 
  0xde, 0xf0, 0xfe, 0x02, 0xee, 0x00, 0xfd, 0xdf, 0xfb, 0xe3, 0x04, 0xf4, 
  0xdb, 0xf3, 0xfc, 0x11, 0xef, 0xe7, 0xf1, 0xde, 0xfd, 0x03, 0xf0, 0xe6, 
  0xfc, 0x01, 0xfc, 0xff, 0xdf, 0x08, 0x01, 0xf3, 0xe3, 0xef, 0xe3, 0xdc, 
  0x1a, 0x00, 0xf0, 0xeb, 0xfb, 0xe9, 0xfa, 0xfc, 0xf9, 0xee, 0xfd, 0xe5, 
  0x09, 0x11, 0xf2, 0x01, 0x0d, 0x02, 0xf8, 0xfa, 0x0c, 0x0f, 0xf5, 0x06, 
  0x15, 0xe5, 0xff, 0xfa, 0xf9, 0x04, 0x05, 0xf3, 0x07, 0x08, 0xfc, 0xfb, 
  0x0a, 0xf5, 0xf7, 0x06, 0x05, 0xb9, 0x0a, 0xf5, 0xee, 0xee, 0x04, 0xfb, 
  0xf8, 0xf7, 0x0a, 0x0d, 0x01, 0xf5, 0xf9, 0x02, 0x04, 0xf4, 0x05, 0xf6, 
  0xf0, 0xe3, 0x0d, 0xf0, 0xf7, 0xfa, 0x0a, 0x16, 0xf9, 0xeb, 0x04, 0x0c, 
  0x05, 0xee, 0x08, 0xd5, 0xde, 0xea, 0x10, 0xf1, 0xe2, 0x05, 0x0a, 0x08, 
  0x07, 0xb8, 0x0a, 0x04, 0x11, 0xe1, 0x00, 0xea, 0xea, 0xe2, 0x17, 0xe8, 
  0xd7, 0x19, 0x01, 0x11, 0xe8, 0xc7, 0xab, 0x19, 0xe4, 0xf9, 0xf0, 0xf1, 
  0xb6, 0xc6, 0x13, 0xff, 0xd1, 0xb7, 0x08, 0x1b, 0x81, 0xc1, 0xc6, 0x00, 
  0xe8, 0xca, 0xbd, 0xf3, 0x06, 0xdb, 0x0b, 0x02, 0xe3, 0xaf, 0xf8, 0xe9, 
  0xf0, 0xf5, 0xeb, 0xf3, 0x13, 0x18, 0xec, 0x09, 0xf2, 0x0b, 0x02, 0xf6, 
  0xfe, 0xe0, 0xfe, 0xeb, 0x02, 0xfd, 0x06, 0xf9, 0x17, 0x03, 0xe0, 0x01, 
  0xf6, 0xfc, 0xeb, 0xea, 0x03, 0xfd, 0xf3, 0xf0, 0xff, 0x01, 0xec, 0xeb, 
  0x03, 0xf1, 0xfc, 0x03, 0xf2, 0x0a, 0xff, 0xeb, 0xeb, 0x00, 0xea, 0x0b, 
  0xfa, 0x05, 0xf2, 0x06, 0x0a, 0xea, 0xec, 0xf7, 0x01, 0xf3, 0xf6, 0xf4, 
  0x09, 0x02, 0xf1, 0x08, 0xed, 0x11, 0x02, 0xfe, 0xfe, 0x09, 0xed, 0xf2, 
  0xe8, 0x0a, 0xf6, 0xfd, 0xf0, 0xeb, 0xef, 0xf3, 0xfe, 0xfd, 0xe9, 0xf9, 
  0x01, 0xfe, 0xe2, 0x08, 0x09, 0x1b, 0xec, 0x0a, 0xf7, 0xf3, 0xea, 0xec, 
  0x02, 0x02, 0xfb, 0xeb, 0xfb, 0x04, 0x02, 0xff, 0x16, 0x13, 0xf8, 0xee, 
  0xf1, 0xfb, 0xe6, 0x0a, 0xef, 0x00, 0xf1, 0xf6, 0x15, 0x0e, 0x01, 0xf3, 
  0x14, 0xfa, 0x01, 0x05, 0xfb, 0x03, 0xe3, 0xf0, 0xe7, 0x0a, 0xfb, 0x07, 
  0x03, 0xf7, 0xf8, 0x10, 0x06, 0x11, 0x07, 0xef, 0xf6, 0xf1, 0xfd, 0xf8, 
  0xee, 0xfd, 0xef, 0xfa, 0x05, 0x01, 0xe9, 0xf6, 0xfb, 0xf7, 0xfc, 0xfe, 
  0xfe, 0xf1, 0xe4, 0xfc, 0x0a, 0xfd, 0xf9, 0xf6, 0x02, 0x08, 0xfc, 0xef, 
  0xf5, 0x07, 0xfe, 0x03, 0x01, 0xf0, 0xf5, 0x07, 0xf2, 0x09, 0xf0, 0xdc, 
  0x14, 0xf3, 0xe1, 0xef, 0xf3, 0x09, 0xfd, 0xf4, 0x08, 0xef, 0xe6, 0x10, 
  0xf7, 0xf8, 0xe7, 0xef, 0x05, 0xfc, 0xe2, 0xee, 0x0c, 0x1e, 0xf4, 0xfb, 
  0x05, 0xf7, 0xe2, 0xea, 0x04, 0x06, 0xfc, 0xf4, 0x23, 0xe7, 0xfe, 0xed, 
  0xf3, 0x0f, 0xff, 0xeb, 0xfd, 0xe8, 0xec, 0xf7, 0xec, 0xf4, 0xa9, 0x31, 
  0x73, 0x22, 0xd3, 0x2c, 0x18, 0xfd, 0xef, 0xfc, 0x0d, 0xf0, 0x1c, 0xd0, 
  0xfe, 0xd6, 0xfd, 0xf7, 0x21, 0x1c, 0xf1, 0x1f, 0xe9, 0x19, 0xdc, 0xd0, 
  0x21, 0x08, 0xf4, 0xe0, 0x19, 0xe2, 0xed, 0x01, 0x14, 0x07, 0x0b, 0x16, 
  0xe6, 0x04, 0xca, 0xae, 0x17, 0xf4, 0xf8, 0xe6, 0xfa, 0xf5, 0xe9, 0xfa, 
  0x15, 0x0e, 0x0b, 0x07, 0xfb, 0xec, 0xce, 0xcb, 0x03, 0xf2, 0x04, 0x04, 
  0xf1, 0xf4, 0xe7, 0x07, 0x1b, 0x1e, 0x0e, 0xfd, 0xfa, 0xda, 0xc9, 0xec, 
  0x13, 0xf7, 0x0a, 0x0b, 0xf7, 0xf8, 0xf0, 0x0c, 0x15, 0x13, 0xf7, 0xfc, 
  0xff, 0xf5, 0xd2, 0xe1, 0x02, 0x09, 0x08, 0xe8, 0x11, 0x17, 0x06, 0xff, 
  0x1a, 0xfe, 0xfa, 0xf4, 0x0b, 0x07, 0xd4, 0xd8, 0x09, 0xf6, 0x00, 0x07, 
  0x06, 0xe9, 0xf6, 0x00, 0x10, 0x06, 0x05, 0xe9, 0x0a, 0xed, 0xc6, 0xe7, 
  0xfd, 0xf1, 0x0a, 0xf4, 0xf7, 0xe0, 0xed, 0x10, 0x05, 0x01, 0x03, 0xe7, 
  0xe2, 0x04, 0xba, 0xcd, 0x08, 0xfc, 0xfe, 0xec, 0x16, 0xcb, 0xe3, 0x10, 
  0x0b, 0x0d, 0x00, 0xfc, 0x08, 0xe4, 0xe7, 0xf2, 0x0d, 0xfb, 0xf8, 0xe7, 
  0x14, 0xde, 0xf3, 0x1a, 0x04, 0x23, 0x0d, 0x0e, 0x07, 0xe5, 0xce, 0x00, 
  0x38, 0x04, 0xf2, 0xf0, 0xfb, 0xdc, 0xe2, 0xf4, 0x07, 0x0e, 0x06, 0x13, 
  0xf9, 0xf3, 0xea, 0x00, 0x23, 0xfa, 0xfe, 0xe3, 0x05, 0xe1, 0xfc, 0xf9, 
  0x06, 0x23, 0xf7, 0xfa, 0xf7, 0x05, 0xe8, 0x0b, 0x26, 0xfc, 0x00, 0xe1, 
  0x1d, 0x06, 0xfc, 0xdb, 0x17, 0x34, 0x04, 0xe6, 0xf6, 0x0c, 0xe3, 0xf7, 
  0x3a, 0x04, 0xfa, 0x18, 0xf9, 0x03, 0xfb, 0xf7, 0xf4, 0xec, 0x01, 0xe6, 
  0xf5, 0xfa, 0x02, 0xf7, 0xff, 0xef, 0xfe, 0xfa, 0xf8, 0xfc, 0xf6, 0xf3, 
  0x04, 0xf1, 0x09, 0xff, 0x06, 0xf1, 0xea, 0xf2, 0xf6, 0xf2, 0xea, 0xf4, 
  0x05, 0xfb, 0x06, 0xff, 0xef, 0x0c, 0xfa, 0xeb, 0x01, 0xf9, 0xfd, 0xfe, 
  0xfd, 0xf3, 0xe0, 0xfc, 0x04, 0x05, 0xf5, 0xe9, 0xff, 0xed, 0xea, 0xf3, 
  0x0d, 0x04, 0x04, 0xf6, 0xf4, 0x0b, 0xe5, 0xf9, 0xec, 0x04, 0xf8, 0x09, 
  0xf8, 0xf2, 0xec, 0x03, 0x01, 0x0d, 0xf3, 0x0c, 0xf5, 0x04, 0xf5, 0xf4, 
  0xe4, 0x07, 0xed, 0xef, 0xf5, 0x08, 0xe3, 0xe5, 0xee, 0x0d, 0x08, 0xf0, 
  0xff, 0x0f, 0xfa, 0xe5, 0x02, 0x09, 0x05, 0xec, 0x06, 0xfc, 0xee, 0xff, 
  0x0b, 0xfb, 0xe8, 0xf4, 0xfd, 0xf6, 0xe9, 0xec, 0xed, 0x0a, 0x11, 0xf2, 
  0xef, 0xf6, 0xf3, 0xee, 0x0d, 0xf3, 0x09, 0x02, 0x01, 0x0f, 0xfc, 0x05, 
  0x05, 0xf6, 0xfc, 0xec, 0xfc, 0x01, 0xf1, 0x04, 0xf4, 0x0f, 0xf1, 0xf2, 
  0x08, 0x00, 0xfe, 0x05, 0x00, 0x07, 0x02, 0xeb, 0xf5, 0xfc, 0xec, 0xff, 
  0x02, 0xee, 0x03, 0xe7, 0xf6, 0x10, 0xf6, 0xf3, 0x03, 0x00, 0xf6, 0xfa, 
  0xfb, 0x0e, 0xf1, 0x05, 0xf6, 0x0f, 0xf3, 0xee, 0xf0, 0x0c, 0xf1, 0xeb, 
  0xf0, 0xeb, 0xf9, 0xf2, 0x07, 0x07, 0x03, 0x02, 0xff, 0xec, 0x01, 0x0d, 
  0x08, 0x04, 0xe3, 0x02, 0xf0, 0x07, 0xf1, 0x02, 0x0f, 0x09, 0xe9, 0xec, 
  0xf9, 0x0b, 0xff, 0xea, 0xfe, 0x05, 0xe3, 0xe8, 0xee, 0x0c, 0x01, 0xec, 
  0x05, 0xfa, 0x00, 0xfd, 0xf2, 0xec, 0xf1, 0xe5, 0xf6, 0xfd, 0xf1, 0x04, 
  0xfc, 0x23, 0xf9, 0xff, 0x0f, 0x2f, 0xfc, 0xe6, 0xdf, 0x2b, 0x01, 0xea, 
  0xf5, 0xfb, 0xf7, 0x06, 0xf6, 0x0b, 0xfd, 0x0f, 0x1c, 0x01, 0xfa, 0xea, 
  0x11, 0x04, 0x29, 0xf6, 0x09, 0xf9, 0xf4, 0x11, 0x03, 0x0e, 0xf3, 0x0f, 
  0xda, 0x1a, 0xf6, 0xd7, 0x12, 0xd7, 0x14, 0x18, 0xe5, 0x07, 0xfc, 0x10, 
  0x01, 0x13, 0xf0, 0x0f, 0xe3, 0x14, 0x02, 0xf2, 0x15, 0xdc, 0x03, 0x09, 
  0x09, 0xf8, 0xf2, 0x1e, 0x08, 0x16, 0x00, 0x03, 0xe2, 0x2d, 0x0b, 0xfe, 
  0x10, 0xea, 0xf6, 0x16, 0x0e, 0xf7, 0xf8, 0x1d, 0xf9, 0x15, 0xfe, 0x0e, 
  0x07, 0x0b, 0x00, 0x01, 0x0c, 0xec, 0x11, 0x1e, 0xe2, 0xfb, 0xfb, 0x13, 
  0x00, 0x0d, 0xf5, 0x0d, 0xee, 0x10, 0x02, 0xff, 0x07, 0x06, 0x0d, 0x09, 
  0x12, 0x01, 0xf4, 0x1e, 0x02, 0xfe, 0xfe, 0x13, 0xe1, 0x26, 0x02, 0xf7, 
  0x1a, 0xea, 0xfa, 0x2d, 0x02, 0xf7, 0xfb, 0x13, 0xff, 0x01, 0xfd, 0x07, 
  0xdb, 0x26, 0x02, 0x0b, 0x0c, 0xee, 0x02, 0x27, 0xf8, 0xfb, 0xf6, 0x16, 
  0x00, 0x0e, 0xfe, 0x08, 0xe0, 0x21, 0x03, 0xec, 0x0d, 0xdf, 0x0d, 0x29, 
  0x04, 0x04, 0xea, 0x12, 0x03, 0x02, 0xfb, 0xe2, 0xf8, 0xf2, 0xf8, 0x05, 
  0x11, 0xed, 0x13, 0x35, 0xea, 0x00, 0xe2, 0x0e, 0xf6, 0xf8, 0xfc, 0xd1, 
  0x07, 0xf4, 0xfb, 0x10, 0x1b, 0xf4, 0x18, 0x37, 0xed, 0xff, 0xf2, 0xcc, 
  0xfe, 0xcf, 0x02, 0x99, 0x22, 0xe7, 0x04, 0xf7, 0xd5, 0x04, 0xbd, 0xc4, 
  0xe7, 0x08, 0xcf, 0xe7, 0x05, 0xe6, 0x02, 0xa7, 0x1e, 0x1e, 0xfe, 0xec, 
  0xe1, 0x1a, 0xde, 0xe6, 0xf5, 0x03, 0xda, 0xe9, 0xe9, 0x0b, 0x0d, 0xf7, 
  0xf1, 0x0e, 0xfb, 0x0e, 0x0e, 0x09, 0xf4, 0x0b, 0xf0, 0xde, 0xec, 0xee, 
  0x0a, 0x02, 0xf9, 0xed, 0xfd, 0x0c, 0xfa, 0xfd, 0x04, 0xfa, 0x0a, 0xf3, 
  0xf0, 0xed, 0xff, 0xec, 0x02, 0xec, 0x08, 0xf6, 0xf4, 0xf2, 0x02, 0xf8, 
  0xef, 0xf1, 0x02, 0xf1, 0x02, 0xeb, 0xf0, 0xf8, 0x04, 0x09, 0xe6, 0xf3, 
  0xf5, 0x0f, 0x03, 0xfe, 0xfa, 0xed, 0xf6, 0xec, 0xfe, 0xec, 0xe2, 0x09, 
  0x06, 0xfd, 0x08, 0xef, 0x02, 0x01, 0xeb, 0x01, 0x0d, 0x0d, 0xff, 0xf5, 
  0xed, 0xf1, 0xf2, 0x04, 0xfc, 0xf7, 0xe7, 0xe7, 0xee, 0x01, 0xe7, 0x02, 
  0xf7, 0x0b, 0xf9, 0xf9, 0x0a, 0xee, 0xfd, 0xef, 0xf4, 0xfb, 0xff, 0xeb, 
  0xec, 0x0a, 0x03, 0xf0, 0xfe, 0xf8, 0xef, 0xf7, 0xe9, 0xf7, 0xe7, 0xfc, 
  0xfa, 0xfc, 0xfa, 0xfb, 0xf3, 0x0b, 0xf7, 0xfd, 0x03, 0xec, 0xeb, 0x03, 
  0xfe, 0xf1, 0xf0, 0xfd, 0x0a, 0xf3, 0xe4, 0x07, 0xfa, 0x0b, 0xf7, 0xf2, 
  0xff, 0xfa, 0x09, 0xef, 0xf5, 0x0c, 0xf3, 0xed, 0x06, 0xf4, 0xf3, 0xeb, 
  0xed, 0xff, 0xff, 0xf4, 0x06, 0xfd, 0x0b, 0x06, 0xf4, 0x08, 0xf2, 0xee, 
  0x0b, 0xea, 0xfa, 0xf0, 0xfa, 0xf5, 0xf8, 0xe7, 0xee, 0xfe, 0xf2, 0x0e, 
  0x0b, 0xe7, 0xe0, 0x07, 0xfb, 0x05, 0xe7, 0x05, 0x05, 0xe3, 0xfe, 0xf2, 
  0xfb, 0x07, 0xec, 0xfa, 0xf4, 0xf4, 0xe8, 0xf2, 0x03, 0x07, 0xfb, 0xda, 
  0x04, 0xee, 0x00, 0x06, 0x0c, 0xfa, 0x06, 0x0b, 0xf3, 0xec, 0xee, 0xee, 
  0xf1, 0xfd, 0xf2, 0xfb, 0x04, 0xf3, 0xea, 0xea, 0xfb, 0xf5, 0xfa, 0xf7, 
  0x08, 0xff, 0x04, 0xea, 0x1b, 0x20, 0x0b, 0xfb, 0xed, 0xf5, 0x12, 0x06, 
  0x01, 0xfe, 0xd9, 0xfd, 0x0a, 0x0b, 0x01, 0xfb, 0xe9, 0xe9, 0x0d, 0x13, 
  0x08, 0x06, 0x1b, 0xff, 0xea, 0x06, 0xf9, 0x0c, 0x01, 0x03, 0x0e, 0x17, 
  0xd9, 0xeb, 0xf8, 0xff, 0x11, 0xfe, 0xfb, 0x07, 0xe4, 0xe5, 0xfc, 0xf6, 
  0x06, 0xf2, 0x1a, 0xed, 0xd5, 0xfe, 0x1d, 0x0b, 0xfa, 0xfb, 0xce, 0x14, 
  0xf0, 0xf6, 0xf7, 0x00, 0x06, 0x10, 0x02, 0xda, 0xc3, 0xef, 0xed, 0x07, 
  0xf6, 0x01, 0xe8, 0xfa, 0x07, 0xee, 0x09, 0x09, 0x04, 0x0c, 0x08, 0xf2, 
  0xd6, 0xe2, 0xf6, 0xee, 0x0e, 0xfe, 0xf0, 0xf7, 0xf8, 0xf2, 0xfc, 0x13, 
  0xee, 0x0e, 0x0d, 0xe1, 0xd9, 0xeb, 0x03, 0xdf, 0x04, 0x01, 0xe2, 0xf6, 
  0xdd, 0xf6, 0x01, 0x10, 0xe0, 0xfa, 0xf4, 0xf2, 0xd3, 0xe0, 0x14, 0xdf, 
  0x05, 0xf4, 0xe4, 0x0e, 0xfd, 0xfe, 0xfa, 0x14, 0xdf, 0x12, 0xf2, 0xda, 
  0xd2, 0xf3, 0xfc, 0xed, 0xf8, 0x01, 0xfa, 0xe9, 0xe5, 0xfd, 0x06, 0x13, 
  0xf1, 0x05, 0xf2, 0x13, 0xd6, 0xf3, 0x06, 0xec, 0xeb, 0x06, 0xf6, 0xf3, 
  0xef, 0x19, 0x01, 0xf1, 0xf0, 0x00, 0xf2, 0xf9, 0xe7, 0xf2, 0xfa, 0xf2, 
  0x01, 0x01, 0xf1, 0x0f, 0xf2, 0x04, 0x08, 0xf3, 0xf9, 0xeb, 0xf7, 0xfb, 
  0xd5, 0x08, 0xf9, 0xf2, 0xf8, 0x00, 0xe7, 0xf3, 0xed, 0xf8, 0x04, 0x09, 
  0xf4, 0xde, 0xfb, 0x12, 0xcb, 0xf7, 0xf2, 0xf3, 0x03, 0xdd, 0xde, 0xf0, 
  0xf6, 0xff, 0x02, 0x0f, 0xef, 0xfe, 0xf4, 0xed, 0xc8, 0xeb, 0x07, 0xee, 
  0xfa, 0xe0, 0xdf, 0x06, 0xff, 0xf3, 0x03, 0x03, 0xed, 0xe8, 0xfd, 0x0f, 
  0xfa, 0xee, 0x04, 0xeb, 0xfc, 0xf9, 0xf0, 0xf7, 0xf2, 0xfb, 0xee, 0xfc, 
  0xf6, 0xf6, 0xe4, 0xf2, 0xf0, 0xfc, 0x03, 0xe1, 0x05, 0xfd, 0xed, 0xf8, 
  0xf6, 0xf4, 0x0c, 0x0c, 0x0b, 0xfb, 0x02, 0x0b, 0xf8, 0x09, 0x0a, 0xfc, 
  0xf3, 0x09, 0xf8, 0xe8, 0xfd, 0xeb, 0xf3, 0xf9, 0xf8, 0x02, 0xe1, 0xf2, 
  0x13, 0x00, 0xfc, 0xeb, 0xf1, 0x02, 0xed, 0xf9, 0xee, 0x0c, 0xf7, 0xf8, 
  0xef, 0x10, 0xe8, 0xf4, 0xf6, 0xfa, 0xec, 0xf4, 0xf5, 0xf6, 0xeb, 0x0b, 
  0xf7, 0x0d, 0xef, 0x0e, 0xfa, 0x0c, 0xe4, 0xef, 0xeb, 0x01, 0xf4, 0xf2, 
  0x02, 0x0c, 0xed, 0x01, 0x0c, 0x0d, 0xf8, 0xed, 0xfc, 0xf9, 0xee, 0x0c, 
  0xf9, 0xfc, 0xf1, 0xe7, 0xfe, 0xee, 0xeb, 0xf2, 0x0d, 0xf9, 0xf4, 0x0b, 
  0xf7, 0x09, 0xec, 0xee, 0xff, 0xf1, 0xff, 0x00, 0x08, 0xf6, 0xf3, 0xf0, 
  0xf0, 0x0a, 0xfa, 0xfc, 0x0a, 0xfd, 0xe2, 0xee, 0xfc, 0xf3, 0xf7, 0xf7, 
  0xf0, 0xf1, 0x01, 0xf7, 0xf3, 0xf8, 0xff, 0xf9, 0xf5, 0x08, 0xf7, 0xf9, 
  0x02, 0xfa, 0xf4, 0xfb, 0x0b, 0xfd, 0xf5, 0xf0, 0x04, 0x0c, 0x03, 0x0e, 
  0xeb, 0xfc, 0xed, 0x08, 0xff, 0xf6, 0xfd, 0x03, 0x04, 0x0a, 0xf9, 0xfa, 
  0xf2, 0xef, 0xfe, 0x09, 0xec, 0xf7, 0xee, 0xf1, 0xff, 0xf5, 0xf4, 0xfc, 
  0xf4, 0x09, 0xfd, 0xf2, 0x03, 0xff, 0x03, 0xfa, 0xf0, 0xf5, 0xe3, 0xf2, 
  0xef, 0x12, 0x07, 0xfb, 0x06, 0x08, 0xfb, 0x06, 0xed, 0xf3, 0xe9, 0xfc, 
  0x10, 0xfc, 0xef, 0xeb, 0xf8, 0x0b, 0x00, 0xf1, 0xf6, 0xfd, 0xef, 0x04, 
  0xf8, 0x02, 0xed, 0xf8, 0x02, 0xf9, 0xda, 0xf7, 0x36, 0xfc, 0xff, 0xff, 
  0x04, 0x00, 0x00, 0x00, 0x40, 0x00, 0x00, 0x00, 0xec, 0xff, 0xff, 0xff, 
  0xf0, 0xff, 0xff, 0xff, 0xef, 0xff, 0xff, 0xff, 0x0b, 0x00, 0x00, 0x00, 
  0x0c, 0x00, 0x00, 0x00, 0xf6, 0xff, 0xff, 0xff, 0xd1, 0xff, 0xff, 0xff, 
  0xfe, 0xff, 0xff, 0xff, 0x04, 0x00, 0x00, 0x00, 0x06, 0x00, 0x00, 0x00, 
  0xf6, 0xff, 0xff, 0xff, 0xea, 0xff, 0xff, 0xff, 0x1e, 0x00, 0x00, 0x00, 
  0xee, 0xff, 0xff, 0xff, 0x07, 0x00, 0x00, 0x00, 0xef, 0xff, 0xff, 0xff, 
  0x82, 0xfc, 0xff, 0xff, 0x04, 0x00, 0x00, 0x00, 0x00, 0x02, 0x00, 0x00, 
  0x0f, 0x12, 0xdd, 0x24, 0xeb, 0xf1, 0xf3, 0xe8, 0xf5, 0xe7, 0x7f, 0x26, 
  0xdc, 0xfc, 0xe5, 0xcc, 0xd8, 0xf6, 0xe8, 0xe5, 0xe9, 0x06, 0xe8, 0x07, 
  0xf1, 0x1c, 0xe6, 0xf0, 0xf1, 0xe4, 0xe6, 0x0e, 0x34, 0x06, 0xaf, 0x50, 
  0x4f, 0xb3, 0xc5, 0x83, 0xd4, 0x12, 0xd4, 0x03, 0xf6, 0xb4, 0x9e, 0xcd, 
  0xa9, 0xd3, 0x18, 0x81, 0xee, 0xfe, 0xef, 0x56, 0x04, 0xbd, 0x16, 0xf0, 
  0x8a, 0x08, 0x45, 0x5b, 0xd8, 0xe5, 0x2e, 0xf4, 0x9f, 0xed, 0x0d, 0xf0, 
  0xfc, 0xe6, 0xe6, 0xde, 0xc0, 0x23, 0xf6, 0x05, 0xd4, 0xf3, 0x14, 0xd9, 
  0xb0, 0x11, 0xef, 0x08, 0xe8, 0xe9, 0x23, 0xfc, 0x81, 0x0a, 0xeb, 0xe5, 
  0xea, 0x8e, 0xc6, 0xd6, 0x99, 0xcf, 0xea, 0x7f, 0x22, 0x0b, 0xe5, 0x1d, 
  0x66, 0x06, 0x29, 0xe0, 0xd3, 0x0c, 0x20, 0xd5, 0x1e, 0x06, 0xe4, 0xd4, 
  0xdf, 0x22, 0xf5, 0xd1, 0x3b, 0x0c, 0xec, 0xf2, 0xf4, 0xfb, 0x93, 0xf9, 
  0xe1, 0xc3, 0xf6, 0xef, 0x10, 0x18, 0xa3, 0x11, 0xcf, 0xd7, 0xfc, 0x08, 
  0xff, 0xff, 0x8f, 0x07, 0xef, 0xdd, 0x01, 0xf7, 0x17, 0x0e, 0x81, 0x1e, 
  0xda, 0xe3, 0x01, 0x18, 0x0a, 0xe8, 0xe0, 0x33, 0x50, 0xf7, 0x02, 0xd7, 
  0x1a, 0x02, 0x0b, 0x26, 0x1b, 0xc7, 0xd9, 0xbd, 0xbd, 0x3e, 0xfb, 0xd6, 
  0x02, 0xe7, 0x81, 0xca, 0xbd, 0x09, 0xe3, 0xc8, 0xef, 0xac, 0x97, 0xf8, 
  0xe5, 0x08, 0x1d, 0xec, 0xfc, 0xfa, 0xe5, 0xef, 0xbe, 0x13, 0x27, 0xa9, 
  0xe6, 0x36, 0xf5, 0x1e, 0x11, 0xba, 0x62, 0xfa, 0xc4, 0xfc, 0x1f, 0x00, 
  0x1b, 0x81, 0xb4, 0x36, 0xb6, 0x04, 0xf1, 0xda, 0xa5, 0x2e, 0xf4, 0x8b, 
  0x14, 0x2e, 0x0d, 0x00, 0xce, 0x00, 0x04, 0x81, 0xd2, 0xf9, 0x12, 0xf4, 
  0xd4, 0x27, 0xf5, 0xcc, 0x0c, 0x2a, 0x0e, 0xfc, 0xd8, 0xe8, 0xe4, 0xd5, 
  0x20, 0xf1, 0xd7, 0xd3, 0x02, 0xdd, 0xbb, 0x07, 0x4e, 0x28, 0x24, 0x0e, 
  0x5a, 0xb9, 0xca, 0x0f, 0x2f, 0xfe, 0x3c, 0xbc, 0xc3, 0xea, 0x0b, 0xe5, 
  0x4c, 0x03, 0xd2, 0xcf, 0xa2, 0xd6, 0x46, 0x93, 0x81, 0xd7, 0xcc, 0xfe, 
  0x49, 0xc8, 0xf1, 0x10, 0x12, 0x9b, 0xf4, 0xd9, 0xeb, 0xff, 0xa4, 0x5e, 
  0xd3, 0x8a, 0x16, 0xd2, 0xff, 0x15, 0xb7, 0xe8, 0xd6, 0xf0, 0xf9, 0x81, 
  0xc4, 0xfc, 0xff, 0xe0, 0xce, 0x7a, 0xf4, 0xc6, 0x10, 0xb8, 0x81, 0x04, 
  0xff, 0x56, 0x1d, 0x16, 0x0e, 0xac, 0x8f, 0xf9, 0x48, 0x21, 0x01, 0xfa, 
  0xe7, 0x01, 0xbd, 0xf1, 0x27, 0xfc, 0xe8, 0xe4, 0xed, 0xca, 0xb6, 0xeb, 
  0xfb, 0xcc, 0xfb, 0xf4, 0x20, 0x09, 0xa8, 0x0b, 0xf7, 0x72, 0x47, 0x03, 
  0x02, 0xdc, 0xc5, 0x10, 0x32, 0x1e, 0x1e, 0xe0, 0xfe, 0xdf, 0xcf, 0xfc, 
  0x2b, 0xe3, 0xbd, 0x81, 0xa8, 0x00, 0xf8, 0xb9, 0x03, 0xcb, 0x95, 0xa6, 
  0xf1, 0x35, 0x21, 0xfa, 0xd6, 0xd3, 0x91, 0x37, 0x22, 0xfe, 0xff, 0xf8, 
  0x57, 0xe6, 0x88, 0xd5, 0xb8, 0xe6, 0xee, 0xbb, 0xfa, 0xeb, 0x81, 0x31, 
  0xfe, 0x17, 0x02, 0x30, 0x16, 0xc2, 0x88, 0xf0, 0x9e, 0xdd, 0x9d, 0xb3, 
  0x37, 0xcc, 0xcf, 0xd3, 0xef, 0xbc, 0x35, 0xe8, 0x81, 0x17, 0xfd, 0xee, 
  0xfd, 0x01, 0x31, 0x16, 0xd3, 0x11, 0xfd, 0x22, 0xe6, 0x0d, 0x1a, 0xe5, 
  0x14, 0xfa, 0x05, 0x0a, 0x00, 0x7f, 0x06, 0xe0, 0xed, 0xec, 0x1b, 0x07, 
  0x08, 0x23, 0xe4, 0x19, 0xdf, 0xe4, 0x07, 0x0c, 0xf9, 0xda, 0xdf, 0xe9, 
  0xcf, 0xf1, 0xfd, 0xe6, 0xfc, 0x24, 0xfa, 0x14, 0xf8, 0x0f, 0xf0, 0xf5, 
  0x91, 0xe6, 0x12, 0x81, 0xf6, 0xdb, 0xcc, 0xdb, 0xc1, 0x9e, 0x18, 0xb2, 
  0xaf, 0xf1, 0xea, 0xfa, 0xf0, 0xee, 0xf1, 0xec, 0xf0, 0xfb, 0x0d, 0x35, 
  0x41, 0x21, 0xe2, 0x29, 0xe7, 0xfa, 0x22, 0x61, 0x8e, 0xfe, 0xff, 0xff, 
  0x04, 0x00, 0x00, 0x00, 0x20, 0x00, 0x00, 0x00, 0x93, 0xff, 0xff, 0xff, 
  0xf9, 0xff, 0xff, 0xff, 0xd7, 0xff, 0xff, 0xff, 0xb3, 0xff, 0xff, 0xff, 
  0x01, 0x00, 0x00, 0x00, 0x88, 0xff, 0xff, 0xff, 0xe7, 0xfe, 0xff, 0xff, 
  0xc8, 0xff, 0xff, 0xff, 0xba, 0xfe, 0xff, 0xff, 0x04, 0x00, 0x00, 0x00, 
  0x60, 0x00, 0x00, 0x00, 0x24, 0x22, 0x59, 0x1d, 0x2c, 0x59, 0x53, 0xca, 
  0x62, 0x1a, 0xf7, 0x81, 0x7b, 0xd9, 0xa3, 0x16, 0xea, 0xc9, 0xdb, 0xf5, 
  0xb0, 0x26, 0xef, 0x81, 0x14, 0xdd, 0xe9, 0xa5, 0xf1, 0xe8, 0x81, 0x08, 
  0xaf, 0xac, 0x1a, 0x31, 0x61, 0x1b, 0x53, 0x1f, 0x08, 0x54, 0x04, 0xd2, 
  0xfa, 0x0e, 0xed, 0x81, 0xfb, 0x51, 0xcc, 0x19, 0x16, 0xc2, 0xb7, 0xf7, 
  0x1a, 0xc5, 0xb5, 0x81, 0x9f, 0xf5, 0x7f, 0xcc, 0xde, 0xd2, 0x87, 0xe1, 
  0x2b, 0xcb, 0x98, 0x14, 0x00, 0x10, 0x4b, 0xdc, 0x13, 0x49, 0x05, 0xef, 
  0x4f, 0x2b, 0xdb, 0x7f, 0xb5, 0xf6, 0xb7, 0xfc, 0xf7, 0xd1, 0x10, 0x19, 
  0x2b, 0x08, 0x06, 0x7f, 0x26, 0xff, 0xff, 0xff, 0x04, 0x00, 0x00, 0x00, 
  0x08, 0x00, 0x00, 0x00, 0xff, 0xff, 0xff, 0xff, 0xe0, 0x00, 0x00, 0x00, 
  0xd0, 0xee, 0xff, 0xff, 0xd4, 0xee, 0xff, 0xff, 0x17, 0x00, 0x00, 0x00, 
  0x54, 0x46, 0x4c, 0x69, 0x74, 0x65, 0x2d, 0x4d, 0x69, 0x63, 0x72, 0x6f, 
  0x20, 0x4d, 0x61, 0x67, 0x69, 0x63, 0x20, 0x57, 0x61, 0x6e, 0x64, 0x00, 
  0x01, 0x00, 0x00, 0x00, 0x14, 0x00, 0x00, 0x00, 0x00, 0x00, 0x0e, 0x00, 
  0x18, 0x00, 0x14, 0x00, 0x10, 0x00, 0x0c, 0x00, 0x08, 0x00, 0x04, 0x00, 
  0x0e, 0x00, 0x00, 0x00, 0x14, 0x00, 0x00, 0x00, 0x1c, 0x00, 0x00, 0x00, 
  0xa0, 0x02, 0x00, 0x00, 0xa4, 0x02, 0x00, 0x00, 0xa8, 0x02, 0x00, 0x00, 
  0x04, 0x00, 0x00, 0x00, 0x6d, 0x61, 0x69, 0x6e, 0x00, 0x00, 0x00, 0x00, 
  0x0a, 0x00, 0x00, 0x00, 0x68, 0x02, 0x00, 0x00, 0x0c, 0x02, 0x00, 0x00, 
  0xa8, 0x01, 0x00, 0x00, 0x64, 0x01, 0x00, 0x00, 0x14, 0x01, 0x00, 0x00, 
  0xec, 0x00, 0x00, 0x00, 0x9c, 0x00, 0x00, 0x00, 0x64, 0x00, 0x00, 0x00, 
  0x28, 0x00, 0x00, 0x00, 0x04, 0x00, 0x00, 0x00, 0x32, 0xff, 0xff, 0xff, 
  0x0c, 0x00, 0x00, 0x00, 0x10, 0x00, 0x00, 0x00, 0x06, 0x00, 0x00, 0x00, 
  0x01, 0x00, 0x00, 0x00, 0x13, 0x00, 0x00, 0x00, 0x01, 0x00, 0x00, 0x00, 
  0x12, 0x00, 0x00, 0x00, 0x46, 0xfe, 0xff, 0xff, 0x1c, 0x00, 0x00, 0x00, 
  0x00, 0x00, 0x00, 0x09, 0x1c, 0x00, 0x00, 0x00, 0x20, 0x00, 0x00, 0x00, 
  0x05, 0x00, 0x00, 0x00, 0x00, 0x00, 0x06, 0x00, 0x08, 0x00, 0x04, 0x00, 
  0x06, 0x00, 0x00, 0x00, 0x00, 0x00, 0x80, 0x3f, 0x01, 0x00, 0x00, 0x00, 
  0x12, 0x00, 0x00, 0x00, 0x01, 0x00, 0x00, 0x00, 0x11, 0x00, 0x00, 0x00, 
  0x7e, 0xfe, 0xff, 0xff, 0x14, 0x00, 0x00, 0x00, 0x00, 0x00, 0x00, 0x08, 
  0x10, 0x00, 0x00, 0x00, 0x14, 0x00, 0x00, 0x00, 0x04, 0x00, 0x00, 0x00, 
  0xcc, 0xef, 0xff, 0xff, 0x01, 0x00, 0x00, 0x00, 0x11, 0x00, 0x00, 0x00, 
  0x03, 0x00, 0x00, 0x00, 0x10, 0x00, 0x00, 0x00, 0x08, 0x00, 0x00, 0x00, 
  0x09, 0x00, 0x00, 0x00, 0xb2, 0xfe, 0xff, 0xff, 0x1c, 0x00, 0x00, 0x00, 
  0x00, 0x00, 0x00, 0x08, 0x1c, 0x00, 0x00, 0x00, 0x20, 0x00, 0x00, 0x00, 
  0x04, 0x00, 0x00, 0x00, 0x00, 0x00, 0x06, 0x00, 0x08, 0x00, 0x07, 0x00, 
  0x06, 0x00, 0x00, 0x00, 0x00, 0x00, 0x00, 0x01, 0x01, 0x00, 0x00, 0x00, 
  0x10, 0x00, 0x00, 0x00, 0x03, 0x00, 0x00, 0x00, 0x0f, 0x00, 0x00, 0x00, 
  0x06, 0x00, 0x00, 0x00, 0x07, 0x00, 0x00, 0x00, 0x00, 0x00, 0x0a, 0x00, 
  0x10, 0x00, 0x0c, 0x00, 0x08, 0x00, 0x04, 0x00, 0x0a, 0x00, 0x00, 0x00, 
  0x0c, 0x00, 0x00, 0x00, 0x10, 0x00, 0x00, 0x00, 0x03, 0x00, 0x00, 0x00, 
  0x01, 0x00, 0x00, 0x00, 0x0f, 0x00, 0x00, 0x00, 0x02, 0x00, 0x00, 0x00, 
  0x0e, 0x00, 0x00, 0x00, 0x01, 0x00, 0x00, 0x00, 0x22, 0xff, 0xff, 0xff, 
  0x24, 0x00, 0x00, 0x00, 0x00, 0x00, 0x00, 0x05, 0x30, 0x00, 0x00, 0x00, 
  0x34, 0x00, 0x00, 0x00, 0x02, 0x00, 0x00, 0x00, 0x00, 0x00, 0x0e, 0x00, 
  0x14, 0x00, 0x00, 0x00, 0x10, 0x00, 0x0c, 0x00, 0x08, 0x00, 0x04, 0x00, 
  0x0e, 0x00, 0x00, 0x00, 0x03, 0x00, 0x00, 0x00, 0x01, 0x00, 0x00, 0x00, 
  0x03, 0x00, 0x00, 0x00, 0x01, 0x00, 0x00, 0x00, 0x01, 0x00, 0x00, 0x00, 
  0x0e, 0x00, 0x00, 0x00, 0x01, 0x00, 0x00, 0x00, 0x0d, 0x00, 0x00, 0x00, 
  0x6e, 0xff, 0xff, 0xff, 0x14, 0x00, 0x00, 0x00, 0x00, 0x00, 0x00, 0x01, 
  0x1c, 0x00, 0x00, 0x00, 0x20, 0x00, 0x00, 0x00, 0x01, 0x00, 0x00, 0x00, 
  0x60, 0xff, 0xff, 0xff, 0x00, 0x00, 0x00, 0x01, 0x01, 0x00, 0x00, 0x00, 
  0x01, 0x00, 0x00, 0x00, 0x01, 0x00, 0x00, 0x00, 0x0d, 0x00, 0x00, 0x00, 
  0x03, 0x00, 0x00, 0x00, 0x0c, 0x00, 0x00, 0x00, 0x04, 0x00, 0x00, 0x00, 
  0x05, 0x00, 0x00, 0x00, 0xae, 0xff, 0xff, 0xff, 0x24, 0x00, 0x00, 0x00, 
  0x00, 0x00, 0x00, 0x05, 0x34, 0x00, 0x00, 0x00, 0x38, 0x00, 0x00, 0x00, 
  0x02, 0x00, 0x00, 0x00, 0x00, 0x00, 0x0e, 0x00, 0x18, 0x00, 0x17, 0x00, 
  0x10, 0x00, 0x0c, 0x00, 0x08, 0x00, 0x04, 0x00, 0x0e, 0x00, 0x00, 0x00, 
  0x03, 0x00, 0x00, 0x00, 0x03, 0x00, 0x00, 0x00, 0x03, 0x00, 0x00, 0x00, 
  0x03, 0x00, 0x00, 0x00, 0x00, 0x00, 0x00, 0x01, 0x01, 0x00, 0x00, 0x00, 
  0x0c, 0x00, 0x00, 0x00, 0x01, 0x00, 0x00, 0x00, 0x0b, 0x00, 0x00, 0x00, 
  0x00, 0x00, 0x0e, 0x00, 0x18, 0x00, 0x14, 0x00, 0x10, 0x00, 0x0c, 0x00, 
  0x0b, 0x00, 0x04, 0x00, 0x0e, 0x00, 0x00, 0x00, 0x20, 0x00, 0x00, 0x00, 
  0x00, 0x00, 0x00, 0x01, 0x28, 0x00, 0x00, 0x00, 0x2c, 0x00, 0x00, 0x00, 
  0x01, 0x00, 0x00, 0x00, 0x0c, 0x00, 0x10, 0x00, 0x00, 0x00, 0x0c, 0x00, 
  0x08, 0x00, 0x07, 0x00, 0x0c, 0x00, 0x00, 0x00, 0x00, 0x00, 0x00, 0x01, 
  0x01, 0x00, 0x00, 0x00, 0x01, 0x00, 0x00, 0x00, 0x01, 0x00, 0x00, 0x00, 
  0x0b, 0x00, 0x00, 0x00, 0x03, 0x00, 0x00, 0x00, 0x0a, 0x00, 0x00, 0x00, 
  0x02, 0x00, 0x00, 0x00, 0x03, 0x00, 0x00, 0x00, 0x00, 0x00, 0x0a, 0x00, 
  0x0c, 0x00, 0x00, 0x00, 0x08, 0x00, 0x04, 0x00, 0x0a, 0x00, 0x00, 0x00, 
  0x08, 0x00, 0x00, 0x00, 0x0c, 0x00, 0x00, 0x00, 0x01, 0x00, 0x00, 0x00, 
  0x0a, 0x00, 0x00, 0x00, 0x01, 0x00, 0x00, 0x00, 0x00, 0x00, 0x00, 0x00, 
  0x01, 0x00, 0x00, 0x00, 0x13, 0x00, 0x00, 0x00, 0x01, 0x00, 0x00, 0x00, 
  0x00, 0x00, 0x00, 0x00, 0x14, 0x00, 0x00, 0x00, 0x08, 0x0e, 0x00, 0x00, 
  0xa0, 0x0d, 0x00, 0x00, 0xb0, 0x0c, 0x00, 0x00, 0x88, 0x0b, 0x00, 0x00, 
  0x54, 0x0a, 0x00, 0x00, 0xc0, 0x08, 0x00, 0x00, 0x4c, 0x08, 0x00, 0x00, 
  0xc0, 0x07, 0x00, 0x00, 0x4c, 0x07, 0x00, 0x00, 0xc0, 0x06, 0x00, 0x00, 
  0x44, 0x06, 0x00, 0x00, 0x10, 0x05, 0x00, 0x00, 0x74, 0x04, 0x00, 0x00, 
  0x50, 0x03, 0x00, 0x00, 0xb4, 0x02, 0x00, 0x00, 0x30, 0x02, 0x00, 0x00, 
  0x64, 0x01, 0x00, 0x00, 0xb8, 0x00, 0x00, 0x00, 0x4c, 0x00, 0x00, 0x00, 
  0x04, 0x00, 0x00, 0x00, 0x5c, 0xf2, 0xff, 0xff, 0x14, 0x00, 0x00, 0x00, 
  0x1c, 0x00, 0x00, 0x00, 0x1c, 0x00, 0x00, 0x00, 0x14, 0x00, 0x00, 0x00, 
  0x24, 0x00, 0x00, 0x00, 0x02, 0x00, 0x00, 0x00, 0xff, 0xff, 0xff, 0xff, 
  0x04, 0x00, 0x00, 0x00, 0x40, 0xf2, 0xff, 0xff, 0x08, 0x00, 0x00, 0x00, 
  0x49, 0x64, 0x65, 0x6e, 0x74, 0x69, 0x74, 0x79, 0x00, 0x00, 0x00, 0x00, 
  0x02, 0x00, 0x00, 0x00, 0x01, 0x00, 0x00, 0x00, 0x04, 0x00, 0x00, 0x00, 
  0x3c, 0xfa, 0xff, 0xff, 0x18, 0x00, 0x00, 0x00, 0x20, 0x00, 0x00, 0x00, 
  0x40, 0x00, 0x00, 0x00, 0x13, 0x00, 0x00, 0x00, 0x00, 0x00, 0x00, 0x09, 
  0x44, 0x00, 0x00, 0x00, 0x02, 0x00, 0x00, 0x00, 0xff, 0xff, 0xff, 0xff, 
  0x04, 0x00, 0x00, 0x00, 0xec, 0xf3, 0xff, 0xff, 0x08, 0x00, 0x00, 0x00, 
  0x14, 0x00, 0x00, 0x00, 0x01, 0x00, 0x00, 0x00, 0x80, 0xff, 0xff, 0xff, 
  0xff, 0xff, 0xff, 0xff, 0x00, 0x00, 0x00, 0x00, 0x01, 0x00, 0x00, 0x00, 
  0x00, 0x00, 0x80, 0x3b, 0x09, 0x00, 0x00, 0x00, 0x49, 0x64, 0x65, 0x6e, 
  0x74, 0x69, 0x74, 0x79, 0x31, 0x00, 0x00, 0x00, 0x02, 0x00, 0x00, 0x00, 
  0x01, 0x00, 0x00, 0x00, 0x04, 0x00, 0x00, 0x00, 0xa4, 0xfa, 0xff, 0xff, 
  0x18, 0x00, 0x00, 0x00, 0x20, 0x00, 0x00, 0x00, 0x3c, 0x00, 0x00, 0x00, 
  0x12, 0x00, 0x00, 0x00, 0x00, 0x00, 0x00, 0x09, 0x84, 0x00, 0x00, 0x00, 
  0x02, 0x00, 0x00, 0x00, 0xff, 0xff, 0xff, 0xff, 0x04, 0x00, 0x00, 0x00, 
  0x54, 0xf4, 0xff, 0xff, 0x08, 0x00, 0x00, 0x00, 0x10, 0x00, 0x00, 0x00, 
  0x01, 0x00, 0x00, 0x00, 0x88, 0xff, 0xff, 0xff, 0xff, 0xff, 0xff, 0xff, 
  0x01, 0x00, 0x00, 0x00, 0xdd, 0x6f, 0x53, 0x40, 0x4e, 0x00, 0x00, 0x00, 
  0x74, 0x66, 0x6c, 0x69, 0x74, 0x65, 0x5f, 0x6d, 0x69, 0x63, 0x72, 0x6f, 
  0x5f, 0x6d, 0x61, 0x67, 0x69, 0x63, 0x5f, 0x77, 0x61, 0x6e, 0x64, 0x2f, 
  0x64, 0x65, 0x6e, 0x73, 0x65, 0x5f, 0x31, 0x2f, 0x4d, 0x61, 0x74, 0x4d, 
  0x75, 0x6c, 0x3b, 0x74, 0x66, 0x6c, 0x69, 0x74, 0x65, 0x5f, 0x6d, 0x69, 
  0x63, 0x72, 0x6f, 0x5f, 0x6d, 0x61, 0x67, 0x69, 0x63, 0x5f, 0x77, 0x61, 
  0x6e, 0x64, 0x2f, 0x64, 0x65, 0x6e, 0x73, 0x65, 0x5f, 0x31, 0x2f, 0x42, 
  0x69, 0x61, 0x73, 0x41, 0x64, 0x64, 0x00, 0x00, 0x02, 0x00, 0x00, 0x00, 
  0x01, 0x00, 0x00, 0x00, 0x04, 0x00, 0x00, 0x00, 0x4c, 0xfb, 0xff, 0xff, 
  0x18, 0x00, 0x00, 0x00, 0x20, 0x00, 0x00, 0x00, 0x3c, 0x00, 0x00, 0x00, 
  0x11, 0x00, 0x00, 0x00, 0x00, 0x00, 0x00, 0x09, 0xa4, 0x00, 0x00, 0x00, 
  0x02, 0x00, 0x00, 0x00, 0xff, 0xff, 0xff, 0xff, 0x10, 0x00, 0x00, 0x00, 
  0xfc, 0xf4, 0xff, 0xff, 0x08, 0x00, 0x00, 0x00, 0x10, 0x00, 0x00, 0x00, 
  0x01, 0x00, 0x00, 0x00, 0x80, 0xff, 0xff, 0xff, 0xff, 0xff, 0xff, 0xff, 
  0x01, 0x00, 0x00, 0x00, 0x8f, 0x24, 0xb6, 0x40, 0x6d, 0x00, 0x00, 0x00, 
  0x74, 0x66, 0x6c, 0x69, 0x74, 0x65, 0x5f, 0x6d, 0x69, 0x63, 0x72, 0x6f, 
  0x5f, 0x6d, 0x61, 0x67, 0x69, 0x63, 0x5f, 0x77, 0x61, 0x6e, 0x64, 0x2f, 
  0x64, 0x65, 0x6e, 0x73, 0x65, 0x2f, 0x4d, 0x61, 0x74, 0x4d, 0x75, 0x6c, 
  0x3b, 0x74, 0x66, 0x6c, 0x69, 0x74, 0x65, 0x5f, 0x6d, 0x69, 0x63, 0x72, 
  0x6f, 0x5f, 0x6d, 0x61, 0x67, 0x69, 0x63, 0x5f, 0x77, 0x61, 0x6e, 0x64, 
  0x2f, 0x64, 0x65, 0x6e, 0x73, 0x65, 0x2f, 0x42, 0x69, 0x61, 0x73, 0x41, 
  0x64, 0x64, 0x3b, 0x74, 0x66, 0x6c, 0x69, 0x74, 0x65, 0x5f, 0x6d, 0x69, 
  0x63, 0x72, 0x6f, 0x5f, 0x6d, 0x61, 0x67, 0x69, 0x63, 0x5f, 0x77, 0x61, 
  0x6e, 0x64, 0x2f, 0x64, 0x65, 0x6e, 0x73, 0x65, 0x2f, 0x52, 0x65, 0x6c, 
  0x75, 0x00, 0x00, 0x00, 0x02, 0x00, 0x00, 0x00, 0x01, 0x00, 0x00, 0x00, 
  0x10, 0x00, 0x00, 0x00, 0x14, 0xfc, 0xff, 0xff, 0x18, 0x00, 0x00, 0x00, 
  0x20, 0x00, 0x00, 0x00, 0x3c, 0x00, 0x00, 0x00, 0x10, 0x00, 0x00, 0x00, 
  0x00, 0x00, 0x00, 0x09, 0x5c, 0x00, 0x00, 0x00, 0x02, 0x00, 0x00, 0x00, 
  0xff, 0xff, 0xff, 0xff, 0xe0, 0x00, 0x00, 0x00, 0xc4, 0xf5, 0xff, 0xff, 
  0x08, 0x00, 0x00, 0x00, 0x10, 0x00, 0x00, 0x00, 0x01, 0x00, 0x00, 0x00, 
  0x80, 0xff, 0xff, 0xff, 0xff, 0xff, 0xff, 0xff, 0x01, 0x00, 0x00, 0x00, 
  0x1b, 0x9c, 0x50, 0x40, 0x27, 0x00, 0x00, 0x00, 0x74, 0x66, 0x6c, 0x69, 
  0x74, 0x65, 0x5f, 0x6d, 0x69, 0x63, 0x72, 0x6f, 0x5f, 0x6d, 0x61, 0x67, 
  0x69, 0x63, 0x5f, 0x77, 0x61, 0x6e, 0x64, 0x2f, 0x66, 0x6c, 0x61, 0x74, 
  0x74, 0x65, 0x6e, 0x2f, 0x52, 0x65, 0x73, 0x68, 0x61, 0x70, 0x65, 0x00, 
  0x02, 0x00, 0x00, 0x00, 0x01, 0x00, 0x00, 0x00, 0xe0, 0x00, 0x00, 0x00, 
  0x94, 0xfc, 0xff, 0xff, 0x18, 0x00, 0x00, 0x00, 0x28, 0x00, 0x00, 0x00, 
  0x44, 0x00, 0x00, 0x00, 0x0f, 0x00, 0x00, 0x00, 0x00, 0x00, 0x00, 0x09, 
  0x6c, 0x00, 0x00, 0x00, 0x04, 0x00, 0x00, 0x00, 0xff, 0xff, 0xff, 0xff, 
  0x0e, 0x00, 0x00, 0x00, 0x01, 0x00, 0x00, 0x00, 0x10, 0x00, 0x00, 0x00, 
  0x4c, 0xf6, 0xff, 0xff, 0x08, 0x00, 0x00, 0x00, 0x10, 0x00, 0x00, 0x00, 
  0x01, 0x00, 0x00, 0x00, 0x80, 0xff, 0xff, 0xff, 0xff, 0xff, 0xff, 0xff, 
  0x01, 0x00, 0x00, 0x00, 0x1b, 0x9c, 0x50, 0x40, 0x2f, 0x00, 0x00, 0x00, 
  0x74, 0x66, 0x6c, 0x69, 0x74, 0x65, 0x5f, 0x6d, 0x69, 0x63, 0x72, 0x6f, 
  0x5f, 0x6d, 0x61, 0x67, 0x69, 0x63, 0x5f, 0x77, 0x61, 0x6e, 0x64, 0x2f, 
  0x6d, 0x61, 0x78, 0x5f, 0x70, 0x6f, 0x6f, 0x6c, 0x69, 0x6e, 0x67, 0x32, 
  0x64, 0x5f, 0x31, 0x2f, 0x4d, 0x61, 0x78, 0x50, 0x6f, 0x6f, 0x6c, 0x00, 
  0x04, 0x00, 0x00, 0x00, 0x01, 0x00, 0x00, 0x00, 0x0e, 0x00, 0x00, 0x00, 
  0x01, 0x00, 0x00, 0x00, 0x10, 0x00, 0x00, 0x00, 0x2c, 0xfd, 0xff, 0xff, 
  0x18, 0x00, 0x00, 0x00, 0x28, 0x00, 0x00, 0x00, 0x44, 0x00, 0x00, 0x00, 
  0x0e, 0x00, 0x00, 0x00, 0x00, 0x00, 0x00, 0x09, 0xf4, 0x00, 0x00, 0x00, 
  0x04, 0x00, 0x00, 0x00, 0xff, 0xff, 0xff, 0xff, 0x2a, 0x00, 0x00, 0x00, 
  0x01, 0x00, 0x00, 0x00, 0x10, 0x00, 0x00, 0x00, 0xe4, 0xf6, 0xff, 0xff, 
  0x08, 0x00, 0x00, 0x00, 0x10, 0x00, 0x00, 0x00, 0x01, 0x00, 0x00, 0x00, 
  0x80, 0xff, 0xff, 0xff, 0xff, 0xff, 0xff, 0xff, 0x01, 0x00, 0x00, 0x00, 
  0x1b, 0x9c, 0x50, 0x40, 0xb7, 0x00, 0x00, 0x00, 0x74, 0x66, 0x6c, 0x69, 
  0x74, 0x65, 0x5f, 0x6d, 0x69, 0x63, 0x72, 0x6f, 0x5f, 0x6d, 0x61, 0x67, 
  0x69, 0x63, 0x5f, 0x77, 0x61, 0x6e, 0x64, 0x2f, 0x63, 0x6f, 0x6e, 0x76, 
  0x32, 0x64, 0x5f, 0x31, 0x2f, 0x52, 0x65, 0x6c, 0x75, 0x3b, 0x74, 0x66, 
  0x6c, 0x69, 0x74, 0x65, 0x5f, 0x6d, 0x69, 0x63, 0x72, 0x6f, 0x5f, 0x6d, 
  0x61, 0x67, 0x69, 0x63, 0x5f, 0x77, 0x61, 0x6e, 0x64, 0x2f, 0x63, 0x6f, 
  0x6e, 0x76, 0x32, 0x64, 0x5f, 0x31, 0x2f, 0x42, 0x69, 0x61, 0x73, 0x41, 
  0x64, 0x64, 0x3b, 0x74, 0x66, 0x6c, 0x69, 0x74, 0x65, 0x5f, 0x6d, 0x69, 
  0x63, 0x72, 0x6f, 0x5f, 0x6d, 0x61, 0x67, 0x69, 0x63, 0x5f, 0x77, 0x61, 
  0x6e, 0x64, 0x2f, 0x63, 0x6f, 0x6e, 0x76, 0x32, 0x64, 0x5f, 0x31, 0x2f, 
  0x43, 0x6f, 0x6e, 0x76, 0x32, 0x44, 0x3b, 0x74, 0x66, 0x6c, 0x69, 0x74, 
  0x65, 0x5f, 0x6d, 0x69, 0x63, 0x72, 0x6f, 0x5f, 0x6d, 0x61, 0x67, 0x69, 
  0x63, 0x5f, 0x77, 0x61, 0x6e, 0x64, 0x2f, 0x63, 0x6f, 0x6e, 0x76, 0x32, 
  0x64, 0x5f, 0x31, 0x2f, 0x42, 0x69, 0x61, 0x73, 0x41, 0x64, 0x64, 0x2f, 
  0x52, 0x65, 0x61, 0x64, 0x56, 0x61, 0x72, 0x69, 0x61, 0x62, 0x6c, 0x65, 
  0x4f, 0x70, 0x2f, 0x72, 0x65, 0x73, 0x6f, 0x75, 0x72, 0x63, 0x65, 0x00, 
  0x04, 0x00, 0x00, 0x00, 0x01, 0x00, 0x00, 0x00, 0x2a, 0x00, 0x00, 0x00, 
  0x01, 0x00, 0x00, 0x00, 0x10, 0x00, 0x00, 0x00, 0x4c, 0xfe, 0xff, 0xff, 
  0x18, 0x00, 0x00, 0x00, 0x28, 0x00, 0x00, 0x00, 0x44, 0x00, 0x00, 0x00, 
  0x0d, 0x00, 0x00, 0x00, 0x00, 0x00, 0x00, 0x09, 0x6c, 0x00, 0x00, 0x00, 
  0x04, 0x00, 0x00, 0x00, 0xff, 0xff, 0xff, 0xff, 0x2a, 0x00, 0x00, 0x00, 
  0x01, 0x00, 0x00, 0x00, 0x08, 0x00, 0x00, 0x00, 0x04, 0xf8, 0xff, 0xff, 
  0x08, 0x00, 0x00, 0x00, 0x10, 0x00, 0x00, 0x00, 0x01, 0x00, 0x00, 0x00, 
  0x80, 0xff, 0xff, 0xff, 0xff, 0xff, 0xff, 0xff, 0x01, 0x00, 0x00, 0x00, 
  0x0d, 0x4a, 0xb8, 0x40, 0x2d, 0x00, 0x00, 0x00, 0x74, 0x66, 0x6c, 0x69, 
  0x74, 0x65, 0x5f, 0x6d, 0x69, 0x63, 0x72, 0x6f, 0x5f, 0x6d, 0x61, 0x67, 
  0x69, 0x63, 0x5f, 0x77, 0x61, 0x6e, 0x64, 0x2f, 0x6d, 0x61, 0x78, 0x5f, 
  0x70, 0x6f, 0x6f, 0x6c, 0x69, 0x6e, 0x67, 0x32, 0x64, 0x2f, 0x4d, 0x61, 
  0x78, 0x50, 0x6f, 0x6f, 0x6c, 0x00, 0x00, 0x00, 0x04, 0x00, 0x00, 0x00, 
  0x01, 0x00, 0x00, 0x00, 0x2a, 0x00, 0x00, 0x00, 0x01, 0x00, 0x00, 0x00, 
  0x08, 0x00, 0x00, 0x00, 0xe4, 0xfe, 0xff, 0xff, 0x18, 0x00, 0x00, 0x00, 
  0x28, 0x00, 0x00, 0x00, 0x48, 0x00, 0x00, 0x00, 0x0c, 0x00, 0x00, 0x00, 
  0x00, 0x00, 0x00, 0x09, 0xf0, 0x00, 0x00, 0x00, 0x04, 0x00, 0x00, 0x00, 
  0xff, 0xff, 0xff, 0xff, 0x80, 0x00, 0x00, 0x00, 0x03, 0x00, 0x00, 0x00, 
  0x08, 0x00, 0x00, 0x00, 0x9c, 0xf8, 0xff, 0xff, 0x08, 0x00, 0x00, 0x00, 
  0x14, 0x00, 0x00, 0x00, 0x01, 0x00, 0x00, 0x00, 0x80, 0xff, 0xff, 0xff, 
  0xff, 0xff, 0xff, 0xff, 0x00, 0x00, 0x00, 0x00, 0x01, 0x00, 0x00, 0x00, 
  0x0d, 0x4a, 0xb8, 0x40, 0xaf, 0x00, 0x00, 0x00, 0x74, 0x66, 0x6c, 0x69, 
  0x74, 0x65, 0x5f, 0x6d, 0x69, 0x63, 0x72, 0x6f, 0x5f, 0x6d, 0x61, 0x67, 
  0x69, 0x63, 0x5f, 0x77, 0x61, 0x6e, 0x64, 0x2f, 0x63, 0x6f, 0x6e, 0x76, 
  0x32, 0x64, 0x2f, 0x52, 0x65, 0x6c, 0x75, 0x3b, 0x74, 0x66, 0x6c, 0x69, 
  0x74, 0x65, 0x5f, 0x6d, 0x69, 0x63, 0x72, 0x6f, 0x5f, 0x6d, 0x61, 0x67, 
  0x69, 0x63, 0x5f, 0x77, 0x61, 0x6e, 0x64, 0x2f, 0x63, 0x6f, 0x6e, 0x76, 
  0x32, 0x64, 0x2f, 0x42, 0x69, 0x61, 0x73, 0x41, 0x64, 0x64, 0x3b, 0x74, 
  0x66, 0x6c, 0x69, 0x74, 0x65, 0x5f, 0x6d, 0x69, 0x63, 0x72, 0x6f, 0x5f, 
  0x6d, 0x61, 0x67, 0x69, 0x63, 0x5f, 0x77, 0x61, 0x6e, 0x64, 0x2f, 0x63, 
  0x6f, 0x6e, 0x76, 0x32, 0x64, 0x2f, 0x43, 0x6f, 0x6e, 0x76, 0x32, 0x44, 
  0x3b, 0x74, 0x66, 0x6c, 0x69, 0x74, 0x65, 0x5f, 0x6d, 0x69, 0x63, 0x72, 
  0x6f, 0x5f, 0x6d, 0x61, 0x67, 0x69, 0x63, 0x5f, 0x77, 0x61, 0x6e, 0x64, 
  0x2f, 0x63, 0x6f, 0x6e, 0x76, 0x32, 0x64, 0x2f, 0x42, 0x69, 0x61, 0x73, 
  0x41, 0x64, 0x64, 0x2f, 0x52, 0x65, 0x61, 0x64, 0x56, 0x61, 0x72, 0x69, 
  0x61, 0x62, 0x6c, 0x65, 0x4f, 0x70, 0x2f, 0x72, 0x65, 0x73, 0x6f, 0x75, 
  0x72, 0x63, 0x65, 0x00, 0x04, 0x00, 0x00, 0x00, 0x01, 0x00, 0x00, 0x00, 
  0x80, 0x00, 0x00, 0x00, 0x03, 0x00, 0x00, 0x00, 0x08, 0x00, 0x00, 0x00, 
  0x14, 0x00, 0x1c, 0x00, 0x18, 0x00, 0x17, 0x00, 0x10, 0x00, 0x0c, 0x00, 
  0x08, 0x00, 0x00, 0x00, 0x00, 0x00, 0x04, 0x00, 0x14, 0x00, 0x00, 0x00, 
  0x18, 0x00, 0x00, 0x00, 0x28, 0x00, 0x00, 0x00, 0x44, 0x00, 0x00, 0x00, 
  0x0b, 0x00, 0x00, 0x00, 0x00, 0x00, 0x00, 0x09, 0x4c, 0x00, 0x00, 0x00, 
  0x04, 0x00, 0x00, 0x00, 0xff, 0xff, 0xff, 0xff, 0x80, 0x00, 0x00, 0x00, 
  0x03, 0x00, 0x00, 0x00, 0x01, 0x00, 0x00, 0x00, 0xcc, 0xf9, 0xff, 0xff, 
  0x08, 0x00, 0x00, 0x00, 0x10, 0x00, 0x00, 0x00, 0x01, 0x00, 0x00, 0x00, 
  0xe3, 0xff, 0xff, 0xff, 0xff, 0xff, 0xff, 0xff, 0x01, 0x00, 0x00, 0x00, 
  0x63, 0xb9, 0x51, 0x41, 0x0c, 0x00, 0x00, 0x00, 0x74, 0x66, 0x6c, 0x2e, 
  0x71, 0x75, 0x61, 0x6e, 0x74, 0x69, 0x7a, 0x65, 0x00, 0x00, 0x00, 0x00, 
  0x04, 0x00, 0x00, 0x00, 0x01, 0x00, 0x00, 0x00, 0x80, 0x00, 0x00, 0x00, 
  0x03, 0x00, 0x00, 0x00, 0x01, 0x00, 0x00, 0x00, 0x4e, 0xf9, 0xff, 0xff, 
  0x14, 0x00, 0x00, 0x00, 0x34, 0x00, 0x00, 0x00, 0x0a, 0x00, 0x00, 0x00, 
  0x00, 0x00, 0x00, 0x02, 0x6c, 0x00, 0x00, 0x00, 0x2c, 0xfa, 0xff, 0xff, 
  0x08, 0x00, 0x00, 0x00, 0x14, 0x00, 0x00, 0x00, 0x01, 0x00, 0x00, 0x00, 
  0x00, 0x00, 0x00, 0x00, 0x00, 0x00, 0x00, 0x00, 0x00, 0x00, 0x00, 0x00, 
  0x01, 0x00, 0x00, 0x00, 0x9f, 0x90, 0xdb, 0x3c, 0x3f, 0x00, 0x00, 0x00, 
  0x74, 0x66, 0x6c, 0x69, 0x74, 0x65, 0x5f, 0x6d, 0x69, 0x63, 0x72, 0x6f, 
  0x5f, 0x6d, 0x61, 0x67, 0x69, 0x63, 0x5f, 0x77, 0x61, 0x6e, 0x64, 0x2f, 
  0x64, 0x65, 0x6e, 0x73, 0x65, 0x5f, 0x31, 0x2f, 0x42, 0x69, 0x61, 0x73, 
  0x41, 0x64, 0x64, 0x2f, 0x52, 0x65, 0x61, 0x64, 0x56, 0x61, 0x72, 0x69, 
  0x61, 0x62, 0x6c, 0x65, 0x4f, 0x70, 0x2f, 0x72, 0x65, 0x73, 0x6f, 0x75, 
  0x72, 0x63, 0x65, 0x00, 0x01, 0x00, 0x00, 0x00, 0x04, 0x00, 0x00, 0x00, 
  0xd6, 0xf9, 0xff, 0xff, 0x14, 0x00, 0x00, 0x00, 0x30, 0x00, 0x00, 0x00, 
  0x09, 0x00, 0x00, 0x00, 0x00, 0x00, 0x00, 0x09, 0x50, 0x00, 0x00, 0x00, 
  0xb4, 0xfa, 0xff, 0xff, 0x08, 0x00, 0x00, 0x00, 0x10, 0x00, 0x00, 0x00, 
  0x01, 0x00, 0x00, 0x00, 0x00, 0x00, 0x00, 0x00, 0x00, 0x00, 0x00, 0x00, 
  0x01, 0x00, 0x00, 0x00, 0x58, 0x4c, 0x9a, 0x3b, 0x26, 0x00, 0x00, 0x00, 
  0x74, 0x66, 0x6c, 0x69, 0x74, 0x65, 0x5f, 0x6d, 0x69, 0x63, 0x72, 0x6f, 
  0x5f, 0x6d, 0x61, 0x67, 0x69, 0x63, 0x5f, 0x77, 0x61, 0x6e, 0x64, 0x2f, 
  0x64, 0x65, 0x6e, 0x73, 0x65, 0x5f, 0x31, 0x2f, 0x4d, 0x61, 0x74, 0x4d, 
  0x75, 0x6c, 0x00, 0x00, 0x02, 0x00, 0x00, 0x00, 0x04, 0x00, 0x00, 0x00, 
  0x10, 0x00, 0x00, 0x00, 0x46, 0xfa, 0xff, 0xff, 0x14, 0x00, 0x00, 0x00, 
  0x34, 0x00, 0x00, 0x00, 0x08, 0x00, 0x00, 0x00, 0x00, 0x00, 0x00, 0x02, 
  0x6c, 0x00, 0x00, 0x00, 0x24, 0xfb, 0xff, 0xff, 0x08, 0x00, 0x00, 0x00, 
  0x14, 0x00, 0x00, 0x00, 0x01, 0x00, 0x00, 0x00, 0x00, 0x00, 0x00, 0x00, 
  0x00, 0x00, 0x00, 0x00, 0x00, 0x00, 0x00, 0x00, 0x01, 0x00, 0x00, 0x00, 
  0xcc, 0xd7, 0xda, 0x3c, 0x3d, 0x00, 0x00, 0x00, 0x74, 0x66, 0x6c, 0x69, 
  0x74, 0x65, 0x5f, 0x6d, 0x69, 0x63, 0x72, 0x6f, 0x5f, 0x6d, 0x61, 0x67, 
  0x69, 0x63, 0x5f, 0x77, 0x61, 0x6e, 0x64, 0x2f, 0x64, 0x65, 0x6e, 0x73, 
  0x65, 0x2f, 0x42, 0x69, 0x61, 0x73, 0x41, 0x64, 0x64, 0x2f, 0x52, 0x65, 
  0x61, 0x64, 0x56, 0x61, 0x72, 0x69, 0x61, 0x62, 0x6c, 0x65, 0x4f, 0x70, 
  0x2f, 0x72, 0x65, 0x73, 0x6f, 0x75, 0x72, 0x63, 0x65, 0x00, 0x00, 0x00, 
  0x01, 0x00, 0x00, 0x00, 0x10, 0x00, 0x00, 0x00, 0xce, 0xfa, 0xff, 0xff, 
  0x14, 0x00, 0x00, 0x00, 0x30, 0x00, 0x00, 0x00, 0x07, 0x00, 0x00, 0x00, 
  0x00, 0x00, 0x00, 0x09, 0x50, 0x00, 0x00, 0x00, 0xac, 0xfb, 0xff, 0xff, 
  0x08, 0x00, 0x00, 0x00, 0x10, 0x00, 0x00, 0x00, 0x01, 0x00, 0x00, 0x00, 
  0x00, 0x00, 0x00, 0x00, 0x00, 0x00, 0x00, 0x00, 0x01, 0x00, 0x00, 0x00, 
  0x68, 0x47, 0x06, 0x3c, 0x24, 0x00, 0x00, 0x00, 0x74, 0x66, 0x6c, 0x69, 
  0x74, 0x65, 0x5f, 0x6d, 0x69, 0x63, 0x72, 0x6f, 0x5f, 0x6d, 0x61, 0x67, 
  0x69, 0x63, 0x5f, 0x77, 0x61, 0x6e, 0x64, 0x2f, 0x64, 0x65, 0x6e, 0x73, 
  0x65, 0x2f, 0x4d, 0x61, 0x74, 0x4d, 0x75, 0x6c, 0x00, 0x00, 0x00, 0x00, 
  0x02, 0x00, 0x00, 0x00, 0x10, 0x00, 0x00, 0x00, 0xe0, 0x00, 0x00, 0x00, 
  0x3e, 0xfb, 0xff, 0xff, 0x14, 0x00, 0x00, 0x00, 0xe8, 0x00, 0x00, 0x00, 
  0x06, 0x00, 0x00, 0x00, 0x00, 0x00, 0x00, 0x02, 0x74, 0x01, 0x00, 0x00, 
  0x1c, 0xfc, 0xff, 0xff, 0x08, 0x00, 0x00, 0x00, 0x8c, 0x00, 0x00, 0x00, 
  0x10, 0x00, 0x00, 0x00, 0x00, 0x00, 0x00, 0x00, 0x00, 0x00, 0x00, 0x00, 
  0x00, 0x00, 0x00, 0x00, 0x00, 0x00, 0x00, 0x00, 0x00, 0x00, 0x00, 0x00, 
  0x00, 0x00, 0x00, 0x00, 0x00, 0x00, 0x00, 0x00, 0x00, 0x00, 0x00, 0x00, 
  0x00, 0x00, 0x00, 0x00, 0x00, 0x00, 0x00, 0x00, 0x00, 0x00, 0x00, 0x00, 
  0x00, 0x00, 0x00, 0x00, 0x00, 0x00, 0x00, 0x00, 0x00, 0x00, 0x00, 0x00, 
  0x00, 0x00, 0x00, 0x00, 0x00, 0x00, 0x00, 0x00, 0x00, 0x00, 0x00, 0x00, 
  0x00, 0x00, 0x00, 0x00, 0x00, 0x00, 0x00, 0x00, 0x00, 0x00, 0x00, 0x00, 
  0x00, 0x00, 0x00, 0x00, 0x00, 0x00, 0x00, 0x00, 0x00, 0x00, 0x00, 0x00, 
  0x00, 0x00, 0x00, 0x00, 0x00, 0x00, 0x00, 0x00, 0x00, 0x00, 0x00, 0x00, 
  0x00, 0x00, 0x00, 0x00, 0x00, 0x00, 0x00, 0x00, 0x00, 0x00, 0x00, 0x00, 
  0x00, 0x00, 0x00, 0x00, 0x00, 0x00, 0x00, 0x00, 0x00, 0x00, 0x00, 0x00, 
  0x00, 0x00, 0x00, 0x00, 0x10, 0x00, 0x00, 0x00, 0xd0, 0xf0, 0xe6, 0x3c, 
  0xc8, 0x46, 0xaf, 0x3c, 0xaa, 0x6d, 0x0f, 0x3d, 0x85, 0x61, 0xa8, 0x3c, 
  0x70, 0x80, 0x53, 0x3d, 0xba, 0x0d, 0xe4, 0x3c, 0x59, 0x02, 0x8e, 0x3c, 
  0xe8, 0x97, 0xdd, 0x3c, 0x04, 0x81, 0xb0, 0x3c, 0x80, 0xd1, 0xb2, 0x3c, 
  0xa8, 0x5f, 0xe8, 0x3c, 0x30, 0x2f, 0xed, 0x3c, 0xed, 0x12, 0xc7, 0x3c, 
  0x6b, 0x84, 0xeb, 0x3c, 0x1c, 0x65, 0xc7, 0x3c, 0x9f, 0x6b, 0xe1, 0x3c, 
  0x91, 0x00, 0x00, 0x00, 0x74, 0x66, 0x6c, 0x69, 0x74, 0x65, 0x5f, 0x6d, 
  0x69, 0x63, 0x72, 0x6f, 0x5f, 0x6d, 0x61, 0x67, 0x69, 0x63, 0x5f, 0x77, 
  0x61, 0x6e, 0x64, 0x2f, 0x63, 0x6f, 0x6e, 0x76, 0x32, 0x64, 0x5f, 0x31, 
  0x2f, 0x42, 0x69, 0x61, 0x73, 0x41, 0x64, 0x64, 0x3b, 0x74, 0x66, 0x6c, 
  0x69, 0x74, 0x65, 0x5f, 0x6d, 0x69, 0x63, 0x72, 0x6f, 0x5f, 0x6d, 0x61, 
  0x67, 0x69, 0x63, 0x5f, 0x77, 0x61, 0x6e, 0x64, 0x2f, 0x63, 0x6f, 0x6e, 
  0x76, 0x32, 0x64, 0x5f, 0x31, 0x2f, 0x43, 0x6f, 0x6e, 0x76, 0x32, 0x44, 
  0x3b, 0x74, 0x66, 0x6c, 0x69, 0x74, 0x65, 0x5f, 0x6d, 0x69, 0x63, 0x72, 
  0x6f, 0x5f, 0x6d, 0x61, 0x67, 0x69, 0x63, 0x5f, 0x77, 0x61, 0x6e, 0x64, 
  0x2f, 0x63, 0x6f, 0x6e, 0x76, 0x32, 0x64, 0x5f, 0x31, 0x2f, 0x42, 0x69, 
  0x61, 0x73, 0x41, 0x64, 0x64, 0x2f, 0x52, 0x65, 0x61, 0x64, 0x56, 0x61, 
  0x72, 0x69, 0x61, 0x62, 0x6c, 0x65, 0x4f, 0x70, 0x2f, 0x72, 0x65, 0x73, 
  0x6f, 0x75, 0x72, 0x63, 0x65, 0x00, 0x00, 0x00, 0x01, 0x00, 0x00, 0x00, 
  0x10, 0x00, 0x00, 0x00, 0xce, 0xfc, 0xff, 0xff, 0x14, 0x00, 0x00, 0x00, 
  0xe8, 0x00, 0x00, 0x00, 0x05, 0x00, 0x00, 0x00, 0x00, 0x00, 0x00, 0x09, 
  0x08, 0x01, 0x00, 0x00, 0xac, 0xfd, 0xff, 0xff, 0x08, 0x00, 0x00, 0x00, 
  0x8c, 0x00, 0x00, 0x00, 0x10, 0x00, 0x00, 0x00, 0x00, 0x00, 0x00, 0x00, 
  0x00, 0x00, 0x00, 0x00, 0x00, 0x00, 0x00, 0x00, 0x00, 0x00, 0x00, 0x00, 
  0x00, 0x00, 0x00, 0x00, 0x00, 0x00, 0x00, 0x00, 0x00, 0x00, 0x00, 0x00, 
  0x00, 0x00, 0x00, 0x00, 0x00, 0x00, 0x00, 0x00, 0x00, 0x00, 0x00, 0x00, 
  0x00, 0x00, 0x00, 0x00, 0x00, 0x00, 0x00, 0x00, 0x00, 0x00, 0x00, 0x00, 
  0x00, 0x00, 0x00, 0x00, 0x00, 0x00, 0x00, 0x00, 0x00, 0x00, 0x00, 0x00, 
  0x00, 0x00, 0x00, 0x00, 0x00, 0x00, 0x00, 0x00, 0x00, 0x00, 0x00, 0x00, 
  0x00, 0x00, 0x00, 0x00, 0x00, 0x00, 0x00, 0x00, 0x00, 0x00, 0x00, 0x00, 
  0x00, 0x00, 0x00, 0x00, 0x00, 0x00, 0x00, 0x00, 0x00, 0x00, 0x00, 0x00, 
  0x00, 0x00, 0x00, 0x00, 0x00, 0x00, 0x00, 0x00, 0x00, 0x00, 0x00, 0x00, 
  0x00, 0x00, 0x00, 0x00, 0x00, 0x00, 0x00, 0x00, 0x00, 0x00, 0x00, 0x00, 
  0x00, 0x00, 0x00, 0x00, 0x00, 0x00, 0x00, 0x00, 0x10, 0x00, 0x00, 0x00, 
  0xf8, 0x66, 0xa0, 0x3b, 0xed, 0x7a, 0x73, 0x3b, 0x43, 0x3d, 0xc7, 0x3b, 
  0xc4, 0xe6, 0x69, 0x3b, 0x93, 0xe6, 0x12, 0x3c, 0xa1, 0x65, 0x9e, 0x3b, 
  0x93, 0x44, 0x45, 0x3b, 0xf3, 0xe8, 0x99, 0x3b, 0x6f, 0x2f, 0x75, 0x3b, 
  0x78, 0x66, 0x78, 0x3b, 0xc3, 0x65, 0xa1, 0x3b, 0x23, 0xbd, 0xa4, 0x3b, 
  0xd3, 0x44, 0x8a, 0x3b, 0xb8, 0x94, 0xa3, 0x3b, 0xe8, 0x7d, 0x8a, 0x3b, 
  0x6c, 0x91, 0x9c, 0x3b, 0x27, 0x00, 0x00, 0x00, 0x74, 0x66, 0x6c, 0x69, 
  0x74, 0x65, 0x5f, 0x6d, 0x69, 0x63, 0x72, 0x6f, 0x5f, 0x6d, 0x61, 0x67, 
  0x69, 0x63, 0x5f, 0x77, 0x61, 0x6e, 0x64, 0x2f, 0x63, 0x6f, 0x6e, 0x76, 
  0x32, 0x64, 0x5f, 0x31, 0x2f, 0x43, 0x6f, 0x6e, 0x76, 0x32, 0x44, 0x00, 
  0x04, 0x00, 0x00, 0x00, 0x10, 0x00, 0x00, 0x00, 0x04, 0x00, 0x00, 0x00, 
  0x01, 0x00, 0x00, 0x00, 0x08, 0x00, 0x00, 0x00, 0xfe, 0xfd, 0xff, 0xff, 
  0x14, 0x00, 0x00, 0x00, 0x84, 0x00, 0x00, 0x00, 0x04, 0x00, 0x00, 0x00, 
  0x00, 0x00, 0x00, 0x02, 0x08, 0x01, 0x00, 0x00, 0xdc, 0xfe, 0xff, 0xff, 
  0x08, 0x00, 0x00, 0x00, 0x48, 0x00, 0x00, 0x00, 0x08, 0x00, 0x00, 0x00, 
  0x00, 0x00, 0x00, 0x00, 0x00, 0x00, 0x00, 0x00, 0x00, 0x00, 0x00, 0x00, 
  0x00, 0x00, 0x00, 0x00, 0x00, 0x00, 0x00, 0x00, 0x00, 0x00, 0x00, 0x00, 
  0x00, 0x00, 0x00, 0x00, 0x00, 0x00, 0x00, 0x00, 0x00, 0x00, 0x00, 0x00, 
  0x00, 0x00, 0x00, 0x00, 0x00, 0x00, 0x00, 0x00, 0x00, 0x00, 0x00, 0x00, 
  0x00, 0x00, 0x00, 0x00, 0x00, 0x00, 0x00, 0x00, 0x00, 0x00, 0x00, 0x00, 
  0x00, 0x00, 0x00, 0x00, 0x08, 0x00, 0x00, 0x00, 0xcd, 0xeb, 0x7b, 0x3c, 
  0x41, 0x25, 0x3b, 0x3d, 0xbe, 0x07, 0x0f, 0x3d, 0xe6, 0xab, 0xc3, 0x3c, 
  0x3e, 0x3b, 0x4c, 0x3d, 0x64, 0xa3, 0x81, 0x3c, 0x76, 0xff, 0x0d, 0x3c, 
  0x8f, 0x28, 0xcb, 0x3c, 0x8b, 0x00, 0x00, 0x00, 0x74, 0x66, 0x6c, 0x69, 
  0x74, 0x65, 0x5f, 0x6d, 0x69, 0x63, 0x72, 0x6f, 0x5f, 0x6d, 0x61, 0x67, 
  0x69, 0x63, 0x5f, 0x77, 0x61, 0x6e, 0x64, 0x2f, 0x63, 0x6f, 0x6e, 0x76, 
  0x32, 0x64, 0x2f, 0x42, 0x69, 0x61, 0x73, 0x41, 0x64, 0x64, 0x3b, 0x74, 
  0x66, 0x6c, 0x69, 0x74, 0x65, 0x5f, 0x6d, 0x69, 0x63, 0x72, 0x6f, 0x5f, 
  0x6d, 0x61, 0x67, 0x69, 0x63, 0x5f, 0x77, 0x61, 0x6e, 0x64, 0x2f, 0x63, 
  0x6f, 0x6e, 0x76, 0x32, 0x64, 0x2f, 0x43, 0x6f, 0x6e, 0x76, 0x32, 0x44, 
  0x3b, 0x74, 0x66, 0x6c, 0x69, 0x74, 0x65, 0x5f, 0x6d, 0x69, 0x63, 0x72, 
  0x6f, 0x5f, 0x6d, 0x61, 0x67, 0x69, 0x63, 0x5f, 0x77, 0x61, 0x6e, 0x64, 
  0x2f, 0x63, 0x6f, 0x6e, 0x76, 0x32, 0x64, 0x2f, 0x42, 0x69, 0x61, 0x73, 
  0x41, 0x64, 0x64, 0x2f, 0x52, 0x65, 0x61, 0x64, 0x56, 0x61, 0x72, 0x69, 
  0x61, 0x62, 0x6c, 0x65, 0x4f, 0x70, 0x2f, 0x72, 0x65, 0x73, 0x6f, 0x75, 
  0x72, 0x63, 0x65, 0x00, 0x01, 0x00, 0x00, 0x00, 0x08, 0x00, 0x00, 0x00, 
  0x22, 0xff, 0xff, 0xff, 0x20, 0x00, 0x00, 0x00, 0x94, 0x00, 0x00, 0x00, 
  0x03, 0x00, 0x00, 0x00, 0x00, 0x00, 0x00, 0x09, 0xb4, 0x00, 0x00, 0x00, 
  0x0c, 0x00, 0x0c, 0x00, 0x00, 0x00, 0x00, 0x00, 0x08, 0x00, 0x04, 0x00, 
  0x0c, 0x00, 0x00, 0x00, 0x08, 0x00, 0x00, 0x00, 0x4c, 0x00, 0x00, 0x00, 
  0x08, 0x00, 0x00, 0x00, 0x00, 0x00, 0x00, 0x00, 0x00, 0x00, 0x00, 0x00, 
  0x00, 0x00, 0x00, 0x00, 0x00, 0x00, 0x00, 0x00, 0x00, 0x00, 0x00, 0x00, 
  0x00, 0x00, 0x00, 0x00, 0x00, 0x00, 0x00, 0x00, 0x00, 0x00, 0x00, 0x00, 
  0x00, 0x00, 0x00, 0x00, 0x00, 0x00, 0x00, 0x00, 0x00, 0x00, 0x00, 0x00, 
  0x00, 0x00, 0x00, 0x00, 0x00, 0x00, 0x00, 0x00, 0x00, 0x00, 0x00, 0x00, 
  0x00, 0x00, 0x00, 0x00, 0x00, 0x00, 0x00, 0x00, 0x00, 0x00, 0x00, 0x00, 
  0x08, 0x00, 0x00, 0x00, 0xfd, 0xc0, 0x99, 0x3a, 0x7a, 0x70, 0x64, 0x3b, 
  0x0a, 0x97, 0x2e, 0x3b, 0xb9, 0xd8, 0xee, 0x3a, 0x97, 0x4b, 0x79, 0x3b, 
  0x38, 0x3e, 0x9e, 0x3a, 0x72, 0x54, 0x2d, 0x3a, 0x4c, 0xfc, 0xf7, 0x3a, 
  0x25, 0x00, 0x00, 0x00, 0x74, 0x66, 0x6c, 0x69, 0x74, 0x65, 0x5f, 0x6d, 
  0x69, 0x63, 0x72, 0x6f, 0x5f, 0x6d, 0x61, 0x67, 0x69, 0x63, 0x5f, 0x77, 
  0x61, 0x6e, 0x64, 0x2f, 0x63, 0x6f, 0x6e, 0x76, 0x32, 0x64, 0x2f, 0x43, 
  0x6f, 0x6e, 0x76, 0x32, 0x44, 0x00, 0x00, 0x00, 0x04, 0x00, 0x00, 0x00, 
  0x08, 0x00, 0x00, 0x00, 0x04, 0x00, 0x00, 0x00, 0x03, 0x00, 0x00, 0x00, 
  0x01, 0x00, 0x00, 0x00, 0x00, 0x00, 0x0e, 0x00, 0x18, 0x00, 0x14, 0x00, 
  0x13, 0x00, 0x0c, 0x00, 0x08, 0x00, 0x04, 0x00, 0x0e, 0x00, 0x00, 0x00, 
  0x14, 0x00, 0x00, 0x00, 0x14, 0x00, 0x00, 0x00, 0x02, 0x00, 0x00, 0x00, 
  0x00, 0x00, 0x00, 0x02, 0x34, 0x00, 0x00, 0x00, 0x88, 0xff, 0xff, 0xff, 
  0x25, 0x00, 0x00, 0x00, 0x74, 0x66, 0x6c, 0x69, 0x74, 0x65, 0x5f, 0x6d, 
  0x69, 0x63, 0x72, 0x6f, 0x5f, 0x6d, 0x61, 0x67, 0x69, 0x63, 0x5f, 0x77, 
  0x61, 0x6e, 0x64, 0x2f, 0x66, 0x6c, 0x61, 0x74, 0x74, 0x65, 0x6e, 0x2f, 
  0x43, 0x6f, 0x6e, 0x73, 0x74, 0x00, 0x00, 0x00, 0x01, 0x00, 0x00, 0x00, 
  0x02, 0x00, 0x00, 0x00, 0x14, 0x00, 0x18, 0x00, 0x14, 0x00, 0x00, 0x00, 
  0x10, 0x00, 0x0c, 0x00, 0x08, 0x00, 0x00, 0x00, 0x00, 0x00, 0x04, 0x00, 
  0x14, 0x00, 0x00, 0x00, 0x14, 0x00, 0x00, 0x00, 0x28, 0x00, 0x00, 0x00, 
  0x28, 0x00, 0x00, 0x00, 0x01, 0x00, 0x00, 0x00, 0x34, 0x00, 0x00, 0x00, 
  0x04, 0x00, 0x00, 0x00, 0xff, 0xff, 0xff, 0xff, 0x80, 0x00, 0x00, 0x00, 
  0x03, 0x00, 0x00, 0x00, 0x01, 0x00, 0x00, 0x00, 0x04, 0x00, 0x04, 0x00, 
  0x04, 0x00, 0x00, 0x00, 0x0c, 0x00, 0x00, 0x00, 0x63, 0x6f, 0x6e, 0x76, 
  0x32, 0x64, 0x5f, 0x69, 0x6e, 0x70, 0x75, 0x74, 0x00, 0x00, 0x00, 0x00, 
  0x04, 0x00, 0x00, 0x00, 0x01, 0x00, 0x00, 0x00, 0x80, 0x00, 0x00, 0x00, 
  0x03, 0x00, 0x00, 0x00, 0x01, 0x00, 0x00, 0x00, 0x07, 0x00, 0x00, 0x00, 
  0x90, 0x00, 0x00, 0x00, 0x70, 0x00, 0x00, 0x00, 0x50, 0x00, 0x00, 0x00, 
  0x40, 0x00, 0x00, 0x00, 0x2c, 0x00, 0x00, 0x00, 0x18, 0x00, 0x00, 0x00, 
  0x04, 0x00, 0x00, 0x00, 0xb4, 0xff, 0xff, 0xff, 0x06, 0x00, 0x00, 0x00, 
  0x02, 0x00, 0x00, 0x00, 0x00, 0x00, 0x00, 0x06, 0xc4, 0xff, 0xff, 0xff, 
  0x19, 0x00, 0x00, 0x00, 0x02, 0x00, 0x00, 0x00, 0x00, 0x00, 0x00, 0x19, 
  0xd4, 0xff, 0xff, 0xff, 0x09, 0x00, 0x00, 0x00, 0x04, 0x00, 0x00, 0x00, 
  0x00, 0x00, 0x00, 0x09, 0xc8, 0xff, 0xff, 0xff, 0x16, 0x00, 0x00, 0x00, 
  0x00, 0x00, 0x00, 0x16, 0xf0, 0xff, 0xff, 0xff, 0x11, 0x00, 0x00, 0x00, 
  0x02, 0x00, 0x00, 0x00, 0x00, 0x00, 0x00, 0x11, 0x0c, 0x00, 0x10, 0x00, 
  0x0f, 0x00, 0x00, 0x00, 0x08, 0x00, 0x04, 0x00, 0x0c, 0x00, 0x00, 0x00, 
  0x03, 0x00, 0x00, 0x00, 0x03, 0x00, 0x00, 0x00, 0x00, 0x00, 0x00, 0x03, 
  0x0c, 0x00, 0x0c, 0x00, 0x0b, 0x00, 0x00, 0x00, 0x00, 0x00, 0x04, 0x00, 
  0x0c, 0x00, 0x00, 0x00, 0x72, 0x00, 0x00, 0x00, 0x00, 0x00, 0x00, 0x72
};

const uint32_t magic_wand_model_len = 9912UL;

const uint8_t *default_model_array = magic_wand_model_array;
const uint32_t default_model_len = 9912UL;
